node {
  name: "global_step/Initializer/Const"
  op: "Const"
  attr {
    key: "_class"
    value {
      list {
        s: "loc:@global_step"
      }
    }
  }
  attr {
    key: "_output_shapes"
    value {
      list {
        shape {
        }
      }
    }
  }
  attr {
    key: "dtype"
    value {
      type: DT_INT64
    }
  }
  attr {
    key: "value"
    value {
      tensor {
        dtype: DT_INT64
        tensor_shape {
        }
        int64_val: 0
      }
    }
  }
}
node {
  name: "global_step"
  op: "VariableV2"
  attr {
    key: "_class"
    value {
      list {
        s: "loc:@global_step"
      }
    }
  }
  attr {
    key: "_output_shapes"
    value {
      list {
        shape {
        }
      }
    }
  }
  attr {
    key: "container"
    value {
      s: ""
    }
  }
  attr {
    key: "dtype"
    value {
      type: DT_INT64
    }
  }
  attr {
    key: "shape"
    value {
      shape {
      }
    }
  }
  attr {
    key: "shared_name"
    value {
      s: ""
    }
  }
}
node {
  name: "global_step/Assign"
  op: "Assign"
  input: "global_step"
  input: "global_step/Initializer/Const"
  attr {
    key: "T"
    value {
      type: DT_INT64
    }
  }
  attr {
    key: "_class"
    value {
      list {
        s: "loc:@global_step"
      }
    }
  }
  attr {
    key: "_output_shapes"
    value {
      list {
        shape {
        }
      }
    }
  }
  attr {
    key: "use_locking"
    value {
      b: true
    }
  }
  attr {
    key: "validate_shape"
    value {
      b: true
    }
  }
}
node {
  name: "global_step/read"
  op: "Identity"
  input: "global_step"
  attr {
    key: "T"
    value {
      type: DT_INT64
    }
  }
  attr {
    key: "_class"
    value {
      list {
        s: "loc:@global_step"
      }
    }
  }
  attr {
    key: "_output_shapes"
    value {
      list {
        shape {
        }
      }
    }
  }
}
node {
  name: "Const"
  op: "Const"
  attr {
    key: "_output_shapes"
    value {
      list {
        shape {
          dim {
            size: 7000
          }
          dim {
            size: 2
          }
        }
      }
    }
  }
  attr {
    key: "dtype"
    value {
      type: DT_FLOAT
    }
  }
  attr {
    key: "value"
    value {
      tensor {
        dtype: DT_FLOAT
        tensor_shape {
          dim {
            size: 7000
          }
          dim {
            size: 2
          }
        }
        tensor_content: "\000\000\254A\024\256\007?\315\314\314=\366(\334>\000\000\260\300=\nW?\315\314\334\300\315\314\014?\232\231\311\300)\\\017>\315\314\234A\303\365(?ff\252A)\\\017>\000\000`@H\341\372>\232\231y@\256Ga?33\023B33\263>\000\000\022B\256G\341=333\277\256G\341>\000\000\016B\244p\275>\315\314\314\277\315\314\314>\315\314\314\276R\270\236>\232\231iAR\270^?\232\231\261A\\\217\002?33\013A\n\327\243>\232\231\tA\\\217B>\232\231\025B\270\036\005?\315\314\314\300\217\302\365>33\213A\000\000@?\000\000\000A\\\217\302>ff\322A\024\256\007?33\027B{\024\256>ff\246A\000\000@?\000\000\022B\341z\224>\315\314\204A\341z\224>\315\314\374@\000\000\200>\000\000\244A\303\365(?\000\000@@\217\302u=\232\231\211AH\341\372>\315\314<A\244p\275>\315\314dA\327\243p?ff\236A\327\243\360>33\253A\\\217\302>ff\226@\256Ga>\315\314\314?\217\302u=ffNA\n\327#<\000\000\000A\341z\224>\000\000\026Bq=J?33\263@)\\O?\000\000\230A\205\353\021?\315\314\000B\366(\\?\000\000\000@\217\302u?33\243A{\024.?\315\314\370AR\270\236>ff\216A\270\036E?33S\300R\270^?ff\226\300\303\365\250>\232\231\211\300\n\327\243=\315\314tA33s?33S\300\037\205k>33\377A\256G!?\232\231\001B=\n\027?ff\016\301=\n\327>\232\231!A=\n\027?33\203A)\\\217=ff\206\300R\270^?\315\314\354\300\217\302\365<\000\000\340\300{\024.>\232\231\rB\341z\224>\315\314\310A\217\302u=33\263?\024\256\307>\232\231yA\n\327#?\000\000\034B\354Q8?\000\000\016B\232\231\031>\315\314\030B\217\302u=ffVA\256G\341=\232\231\231>\354Q\270>\000\000\264A\\\217B?\232\231\251A\366(\034?\232\231\027B\354Q\270=33\263\277)\\\217=\000\000\300?H\341:?\232\231\315A\256G!?\000\000hAR\270\236>\000\000\310AH\341\372>\000\000\230A\217\302\365=ff6A\\\217B>\000\000\nB\354Q8?ff\346@\232\231\031>ff\376A)\\O?\232\231\225A{\024\256>\315\314\254@{\024.>\000\000\300@\256Ga>\315\314\374@fff?\000\000\200\300\341zT?\000\000\000\277\n\327#?\315\314\234\300\217\302\365>\000\000\264A\303\365h?\315\314\244A{\024n?\315\314\020B\217\302u=33\033BR\270\236>\000\000\036B\366(\034?\232\231iA\256Ga>33\023BH\341z?\232\231\231?\n\327\243=\315\314TA\024\256\007?\315\314\234A\366(\034?ff\346\300\303\365h?ff\006\300\303\365h?ff\326\300\366(\\?33\025B\270\036\205>ff\226@\205\353\321>33CAH\341:?ff\010B\341z\024?\232\231\231\277\327\2430?\315\314\024\301\315\314L>33cA=\n\027?\232\231\325A=\nW>\315\314\204A)\\\217>\232\231\351@\n\327\243>33\263@\366(\334>33\273A)\\\017?ffVA=\nW>33\363\277\n\327c?ff&A)\\\217>\232\231\301A\n\327\243=\315\314\244A\n\327\243<33s@\024\256G?33\013A\315\314L?33\023A\232\231Y?\000\000@A\341zT?\000\000\006B\000\000\200>\315\314LA\232\231Y?\315\314L>H\341z?\000\000(A\327\243p?33\223\300{\024.?\232\231Y\300\024\256\307>ff\266@\327\243\360>\000\000\324A\n\327#?\000\000\320@=\nW?\232\231\345A\244p\275>\315\314,A\256G\341>ff\372A{\024n?\315\314\320A{\024n?ff>A\232\231\031>\315\314\\A\256G\341>33\263\300\217\302u?ff\006A)\\\017>33\337Aq=\n?33\223\300\327\243\360>\315\314\230A{\024n?\000\000\314A\037\205\353>\000\000\260@\244p=?\232\231\341A\024\256\007?ff\256Afff?\000\000\274AR\270\036?ff\202A\n\327\243>\315\314\230A\256Ga>ffFA\037\205+?\315\314\014\301\256Ga?33KA\303\365\250>\000\000\270A\232\231\231>ff\306\300R\270^?\315\314\014\300\270\036\005?\232\231\231A\256Ga?\000\000\354A\217\302\365<\232\231\037B\024\256\007?\232\231\311\300{\024\256>ff\352A\354Q8?33sA\341zT?\315\314\354\300\217\302u>\232\231\211\300\n\327\243<ff\206A=\nW>\232\231!A\217\302u=\000\000\004B\244p}?33\323A\217\302\365<\315\314\214\277\354Q8?\315\314\274A)\\\017>\000\000\016B\327\243\360>\000\000\244A\256G\341=33\237A=\nW?33\263\300H\341\372>ff\032B)\\\017?33\243@33s?\000\000\010B\354Q\270=fff\277\\\217\002?\232\231\tA\327\243\360>\000\000`\300\037\205+?\232\231\211\300)\\\217=\315\314\014@\354Q\270=ff.A\366(\334>\315\314\374A\315\314\314>\315\314\334AR\270^?33#A\327\243\360>\315\314\220A\037\205k>\000\000xA\037\205+?\315\314\360AH\341z?\315\314,\300\n\327\243=\000\000\000\277\354Q8>33\363?fff?33\247A\354Qx?\232\231\231A333?ff\322Afff?33\013A\205\353\021?\315\314\364Aff\346>ff\376A)\\\017?ff\372A\n\327c?ff\356A=\n\027?\000\000\320\300R\270^?ff\306A333?\000\000\230A\232\231Y?\232\231\201A333?ff\022B\\\217\002?\000\000\030A\037\205\353>ff\246\300\000\000@?\232\231\031A\327\243p?ff\346\277\256G\341>\000\000\020A\\\217\302>\000\000\020\301\354Q8?\232\231\021\301\315\314\314>33\203A\354Qx?\315\314\240AH\341z?fff?q=J?\232\231\331@H\341:?\232\231yA\037\205\353>33\003\301\341z\224>ff\346A=\n\327>33\023B\354Qx?33\327A=\n\027?\315\314\234@\205\353\021?\315\314\260A\037\205\353>\232\231\231?333?\000\000 B\327\2430?ff\026A\232\231Y?33{A\327\2430?\315\314\214A\341z\224>\315\314|AH\341z?\315\314\314@\366(\\?\000\000\200A\037\205k?ff\016B\024\256G?\315\314\210Aff&?ffF@\037\205+?ff\036\301\256Ga>\232\231\371\300\\\217\002?\232\2319A\354Q\270=\315\314\370A\205\353Q?ff\326A\315\314\314=\232\231\271@ff&?\232\231\023Bq=\n?ff\000B{\024n?\315\314\314>\037\205\353>\315\314\034A\270\036\005?ff\326\300\315\314L?\315\314TA\315\314L=ff\316A{\024n?\315\314\360A\000\000\200>ff\252A\315\314\314>ff\006\301\024\256G?\232\231)A\205\353Q?\232\231\341A333?33\243@\217\302\365<ffnA\232\231\231>33\003A\037\205+?\000\000\334A\217\302u=33\313A\256Ga?ff\362A\303\365\250>33\253A\037\205k?\232\231\001\301\n\327#<\315\314\014\30133s?\000\000\000\301\244p}?\232\231\251@\341z\224>\000\000`@\315\314L>33KA\217\3025?33\263?ff&?\000\0008A\270\036\005>ff\010Bfff?\315\314\014@\303\365h?\232\231\275A\232\231Y?33\303A)\\\017>33\001B\270\036\005>33\263?\315\314L>33\rB=\n\327>\315\314\254@\341z\224>33\247A33\263>ff\246?\232\231Y?ff\276A=\nW>\000\000\026B\270\036\005>33KA)\\\217=ff\226A\217\302\365>33\313AR\270^?33\237A{\024\256>33\023B\327\2430?ff\206@fff?33\027B\315\314L>ff&@\354Q8?\232\231\261A{\024.>\232\231\211\300\\\217\002?\232\231\001\301\024\256\307>\000\000xA\n\327\243>\315\314\330A\341zT?\232\231y@)\\\217=\000\000\250A)\\\217=33\203\300\315\314L=ff\026\301)\\\217=\000\000\240A{\024.>\315\314\314\300ff\346>33s\300q=\n?ff\006\300\037\205k>\315\314\250A\217\302u>ff\010B\244p}?\232\231Y\300\n\327#?\000\000\030B\n\327\243>ff\316A\n\327\243<ff^A\354Qx?33\023\300\n\327#<\000\000\016B\341z\024?33\237A\354Q\270>33\353A33s?33\203@\366(\334>33\307A=\nW?33\323A\232\231\031?33\337A\n\327#?\000\000@\300\024\256G?ff\016\301\n\327\243<33\377A\n\327#?fff\300333?ff\226@\037\205k?\000\000\254Aff\346>ff\016B\354Qx?\232\231\335A\n\327\243<\315\314DAH\341:?\232\231\331@\205\353\321>\315\314\036B\205\353\321>\232\231\331?\217\302u?\315\314,A\n\327#<\232\231\017B\354Q\270>33\363@\217\302u=\000\000`A\232\231\031>\315\314\314=\303\365h?\315\314|A\232\231\031>ff\006\300\n\327#>\000\000PA\232\231\231>ff\366Afff?\000\000\010A\303\365\250>\000\000\nB\303\365(?\315\314\004Bfff?\232\231\371\300\303\365\250>\232\231\311@R\270^?\232\231\201A\217\302u=\000\000@A\315\314\314>ff\346?\256Ga>33\213A\n\327\243=\315\314L\300R\270\236>33\223\300\232\231\031?\000\000\260\300H\341\372>\232\231qA{\024n?ff&A\n\327#<\000\000(A\256Ga>ff\236AH\341:?\000\000\200A\\\217B?\000\000\374A{\024\256>\000\000\334A\315\314L=ff\nB\\\217B>\000\000PA\n\327#<\315\314\314@\256G\341=333\277\n\327#<\232\231\031A\\\217B>\232\231\021\301\341zT?ff\024B\270\036\005?33#A\256G\341=\315\314\004B{\024n?\232\231y@\217\302\365<\000\000\300\277=\n\027?33\027BR\270\036?33\037B=\n\327>\315\314\334@q=\212>333\300H\341:?33\317A{\024\256>33\243\300\315\314L=ff\326AR\270\036?\315\314\334\300\256G\341>ff\202A\232\231\031>ff\232AH\341\372>\315\314\354A=\n\327>ff\346A)\\\017>33\273A=\n\027?\232\231\215A\037\205k>\000\000\340A\217\3025?33s@\n\327#=ff\030B=\n\027?\315\314L\276\270\036\005?\000\000\314A\315\314L?ff\362A\205\353Q?\000\000\006B)\\O?ff\010B\217\302u>\315\314\324A333?ff\236A=\nW>\232\231\321A{\024\256>33sA\303\365h?\000\000\200\277\354Q\270=\232\231\331\277\270\036\005?\000\000\310A{\024.>33\353A\037\205k>\000\000\002B=\n\027?\315\314\034A\n\327#<\232\231\031\300\244p\275>\315\314\024B\244p=?\232\231\271\300\217\302\365>\315\314\200A\256G!?\232\231\t\301\354Q8>\000\000\350A\n\327\243<\315\314\254@{\024.?\232\231\231A\270\036E?\232\231\311A{\024.?\232\231\331\277q=\212>33\343A\354Qx?\232\231\031B\037\205k>\315\314\034\301)\\\217=\315\314\014A\232\231Y?\232\231\271@\024\256\007?33\227A\303\365(?\232\231\t\301\341zT?ff\004B\205\353\321>33\013B\\\217B>\000\000\200A\000\000\200>ff\346A\n\327#?ff\226@\\\217B>ff\000B\270\036\005>ffF\300)\\\017?\232\231\003B\354Qx?\315\314\274A\000\000@?ff\346\277=\nW>fff?\315\314L>33\333AR\270^?\315\314\004\301\n\327#?\315\314\244A\244p=?\315\314\014@\315\314L?\315\314\320A{\024.?\315\314\314@\315\314\314>\315\314\024B\037\205+?\000\000\360@\354Q8?\232\231\345A\256Ga>ffvA\303\365(?\232\231\341A\037\205+?33\203\300\000\000\200?33\003A)\\O?\000\000\200\300\037\205k>33\203@R\270\236>\232\231\037B\205\353\321>\232\231\003B\315\314\014?\315\314\214\300=\nW>\315\314\022B\327\2430?fff\277\366(\334>33\003\301\341z\024?\000\000\344A\354Q8>\000\000\360\300\315\314L=\232\231\231A\244p=?\000\000\360\300\217\302u>\232\231\021B\315\314L=\232\231\371\300\303\365\250>33\303A)\\O?\315\314\240A\270\036\205>33\243A\n\327#>\315\314\354@\256G!?33\233A\327\243p?\232\231\017B\024\256\007?\232\231\251A\n\327#>\232\231aA\024\256G?33\323@\217\302\365>33\257A\256G\341=fff@33s?\000\000\230AH\341:?ff\016B{\024\256>\232\231\031BH\341z?\000\000\000\277\270\036\005?\000\000\324A\256G\341>\000\000\260\300\217\302\365=\000\000\324A\303\365h?33\303@\366(\334>33\033A\303\365(?ff\356A\270\036\205>\000\000\000A\n\327c?\232\231\035B=\nW?33\303\300\232\231\031?\000\000pA\315\314L=\315\314\314\275\270\036\005>ff\246@33\263>ff\326\300fff?\000\000\200\300\232\231\031?ff\002B)\\\017>ffF\300\244p}?\000\000\nB\315\314\314>33\363\300{\024.?ff\010B\232\231\231>33\347A\217\302\365=33\023@\205\353Q?\315\314\320A\000\000\000?33\023A\354Q8>ff\272A{\024n?ff\342A\\\217\302>\315\314\016B\232\231\231>\315\314<A33s?\232\231\211@\270\036\205>33\035B\232\231\231>33SA\217\302\365=ff\036\301\303\365h?\315\3144A\000\000@?ff\026\301\256Ga?\000\000\254A\232\231\031>\000\000\264A\303\365(?\000\000 \300\244p=?\315\314\214A\232\231\031>\315\314\350A\366(\034?\232\231\031@\327\243p?ff\332A333?33kA\232\231\031>\232\231\215A\303\365h?\315\314\334AR\270\236>\000\000PA=\n\327>33S@\037\205k?33\013B33\263>ff&@\232\231\031>\315\314\024B\327\243p?\315\314\370A\000\000\000?33\337A\232\231\031>ff\232A\341z\224>ff\336A\315\314L=33\tB)\\\217>\232\231yA\n\327\243<33\257A\\\217B?\232\231aA)\\O?\000\000\300A\256G\341=\315\314\274\300ff\346>\232\231\371AH\341\372>ffNA\n\327#>33cA\303\365h?ff.AH\341:?33+Aff\346>ff.A\366(\034?\000\000 @\303\365\250>\000\000\224A{\024.>\232\231\tA\232\231\231>\232\231\361A\315\314\314>ff\006@=\nW>ff\222A=\n\027?\000\000\244A\366(\\?ff\236A\024\256G?\315\314L?\232\231\031>\000\000\374A\366(\\?\315\314\214@=\nW?33\233A=\nW?33\317A\n\327#<33\rB)\\\217>\315\314\354A\315\314L>33{A\217\3025?333\277H\341:?\000\000\220\300\232\231\031>ff\366\300\\\217B>33CA\n\327\243=\000\000\340@\270\036E?\315\314\270A)\\\217=ff\006\300)\\O?\232\231\271A\341z\224>ff\266@333?33\023BR\270^?\315\314\224A\000\000\000?ff\014B\315\314\314=ff\036\301R\270^?ff\266A\354Q\270>ff\376Afff?\000\000\244A=\nW>ff\024B\n\327#<\000\000\320A\354Q8?\315\314\014B\303\365h?33sA\366(\034?\000\000\320A\217\302\365=\232\231Y\300\354Q8?\000\000\300A\327\2430?ff\326A\341z\224>33\303A33\263>ff\202A)\\\017>\315\314\240A=\n\327>\000\000\022Bfff?33s\300\024\256\007?\315\314LA{\024n?\000\000\020B\341zT?ff6A\000\000\000\000\000\000\364A33\263>\000\000\360\300\n\327#?\232\231\005B\217\302\365=33\003A\270\036\205>\315\314\030B\217\302\365=\232\231\331?\327\243\360>\000\000\000\277\327\243p?\315\314\234@\354Q8?ff\306@\037\205+?ff\006\300\205\353Q?\315\314\nB\244p=?ff\362A\\\217B>ff~A\217\302u?\232\231aAfff?33\303@\366(\334>\000\000\360\300\000\000@?\315\314\274@\315\314\014?\000\000\240@\024\256G?\000\000\330A{\024\256>\315\314\210A\n\327#>\232\231\251@fff?\000\000\030A\n\327c?\232\231\221A\n\327#=\000\000\300@=\nW?33sA\\\217B>\000\000\016B\217\302\365<\232\231aA\270\036E?\315\314$A\205\353Q?\315\314\334\300\217\302\365>\315\314\334\300\n\327\243=\315\314\\Afff?ff\036B\217\302\365=ff\246\300=\n\027?\315\314\004\301fff?\232\231\271A\303\365h?\000\000\324A\354Q8>\000\000xA\327\243p?33\273A\217\302u=\315\314L\277\n\327\243>\315\314\024B\354Q8?33\033B\256Ga>\232\231\211\300q=\n?\000\000\310A\270\036\005?33\363@R\270\036?33s@\232\231\231>ffF@)\\\017?\000\000 A\354Q\270>\315\314\034B\270\036\205>ff\256A\303\365h?\232\231\361A)\\O?\315\314\024B\217\302u>ff\332A\n\327\243<ff\016\301\\\217\302>\315\314\350A\\\217\302>\232\231\251\30033\263>\315\314\010B\270\036\205>\000\000\300A\217\302u?ff\226A\000\000\200>\000\000\270A)\\\017>33\013\301\205\353\021?33\263\300\\\217B?33\327A\270\036\005>\232\231\tB\217\302u?\232\2319A\327\2430?\232\231\305A)\\\217>33\023\301\n\327#<\000\000\000\000\232\231\231>\232\231\371\300\037\205\353>ff\276A\024\256\307>\000\000\210A)\\\017>ff&\300R\270^?\000\000\204A\366(\\?\000\000\024B\354Q8?\000\000\nB\n\327#>33\237A)\\\217=\000\000\006B\366(\\?\232\231\027B\205\353Q?\315\314\024\301R\270\236>\232\231\351\300\354Q\270=\000\000@\300H\341z?333\300H\341:?\232\231\211A\n\327c?ff\036B\303\365\250>33\303A\341zT?ff\346\277=\nW>\315\314\314\276\217\302u=\232\231\351\300R\270\236>\232\231\rB{\024\256>\000\000\000\277\303\365\250>\315\314L?\232\231\031?ff\366A\270\036\205>ff\356A\366(\\?\000\000\224A\270\036\205>33\303@)\\\017>33\203@\205\353\021?\000\000\320@\244p=?\232\231\231\300\217\3025?33\317A\n\327#>\315\314lA33\263>\315\314l\300R\270\036?\232\231\231@q=\n?33\217A\037\205\353>ff&A\\\217B>\000\000 \301\217\3025?\000\000\270A\\\217\002?\000\000\260@ff\346>ff\246\277\232\231\031>\315\314\354A333?\232\231\301A\315\314\314=\000\000\020\301\024\256\307>ff\352A)\\\217>\000\000\274A\024\256\307>\315\314\234A\303\365\250>33\023B\000\000\200>\000\000\270A\341z\224>\000\000\220@)\\\017?ff\030B\024\256\007?\000\000\020A33\263>\315\314L\277\256G\341>\000\000\270A\n\327#<\232\231\001A\000\000@?33\277Afff?\000\000\360\300\217\302u?33\037B\232\231Y?\315\314\024B\315\314L?\315\314\374@\270\036E?ff\322A\\\217\002?ff&A\n\327#<\232\231IA\037\205+?\315\314\026B\232\231\031?\315\314\014\300H\341z?33\363?\256G\341>\232\231\371A\244p=?\232\231\351@333?33\tB\n\327#=\232\231\375A\217\302u>ff\036\301\217\302\365>\000\000\010A\217\302u>\232\231\231\300\232\231Y?\315\314\030B\270\036\005>\232\231\345A)\\O?\315\314\214@\232\231\031>\232\231\311@\n\327c?\000\000\300A\000\000@?33\363@ff\346>33\247A\270\036E?ff\346\300H\341:?ff\246A\341z\224>\000\000\274A\n\327\243<\315\314\334A\232\231\031>\315\314lA\n\327#?fff\277\256G\341>33\207A33s?33\343AR\270\236>33\373Afff?\000\000\274A{\024.?\315\3144A\341zT?\232\231\241A\256G\341>\315\314\032B\366(\034?33\353A{\024.>33\263\277\217\302\365=\315\314L?{\024.?fff@\037\205k?33kA\024\256\307>\315\314\004A=\nW?33\253A\256G\341=\232\231\365A\327\243p?\315\314\214?\n\327#?\315\314\334\300\270\036E?\000\000\270AR\270\036?\315\314LA\n\327#=\232\231IA333?33\253A\024\256G?\315\314\264A\327\243p?33\367AH\341z?\315\314dA\244p=?33\373A\315\314\014?33\267A\217\302u?\232\231\201A\315\314\314=\315\314\370A\037\205\353>33\243A\256G\341>\232\231\245A\000\000\200>\000\000hA\000\000@?ff\036A\315\314\014?\315\314,\300\024\256\007?\315\314\004A\\\217\302>ffNA\244p}?ff\342A\205\353\021?\000\000\016B\037\205\353>33\203A\000\000\000?\000\000`\300\217\302\365<\000\000\004B\366(\334>\232\231\225A\244p\275>fff\300\037\205\353>ff6A\205\353\321>33\257A\205\353\321>\000\000\334A{\024\256>\232\231\023BR\270^?\232\231\245Aff&?\232\231Y\300\354Qx?33\207A\303\365h?ff\266A\024\256\307>33\rB{\024.>33\007Bq=J?\315\314\344A\000\000\000?\232\231\345A\037\205k?\000\000\274A\217\302\365<\232\231IA\270\036\005>33#AH\341:?33\277A\341zT?33\243\300\037\205+?\315\314DAff\346>ff\236A\244p}?\315\314\014\301{\024n?33CA\354Q8?33\233A\327\243\360>\232\231\215A\270\036\005?\000\000\334A\000\000\200>33\013\301\\\217\302>\232\231\031@\232\231\031>ff\306\300\270\036\205>\232\231\311A\244p=?33[AH\341\372>\000\000\000A\000\000\200>\232\231\335A)\\O?ff\306A\n\327\243=\000\000\004B\270\036\005>\315\314\310A\270\036\005?\232\231\361A{\024\256>\315\314\320A\315\314L=\000\000\016B\217\3025?33\013A\354Q\270>\315\314,A\327\243p?\000\000\000@\270\036\005?33\203\300H\341z?\000\000\200@{\024n?33#A\n\327\243>ff\246\277\217\302u?\000\000HA{\024.>\000\000\234A\303\365h?\000\000xA\270\036E?\000\000 \300=\n\027?ff\000B)\\O?33\267Aq=J?\000\000\340@)\\\017?\315\314\026B\217\302\365>ffnA\n\327\243>33\223\300\205\353\021?\315\314\024B\000\000\000\000ff\372A\\\217B?\315\314L?\315\314\314>ff\312A\315\314\014?33\323\300\315\314L>\232\231\331@\256G\341=ff\372A\n\327\243<\000\000xA\366(\034?\232\231\371\300\217\302u=\232\2319\300\315\314\314=ff~A\232\231\031>\232\231\001A\n\327\243<\315\314\034A\000\000\000?\232\231AA\366(\034?\315\314\016B)\\\017>ff\016BH\341z?\232\231\235A)\\\017?ff\016\301\354Q\270>\315\314\034A\244p=?fff\300\354Q\270>\000\000\002B\327\2430?ff\256AR\270\036?\232\231\225A\315\314L=\000\000\214A=\nW?33\303\300\205\353\021?\232\231\001A\\\217B?ff\014B\232\231Y?\315\314\014@ff&?ff\242AH\341z?\232\231\331\277\000\000@?\232\231\375A\244p\275>33\263\277\n\327\243=ff\346A\256G!?33S@\000\000\000\000333\300\n\327#<33\263A\303\365\250>\000\000\344Aq=\212>\315\314\nB\366(\034?\232\231\025B\354Qx?\000\0000A\232\231\031>\315\314\230A\244p}?\232\231\231A\205\353\021?\000\000@@\315\314\314>\315\314\234@\354Q\270=33\033\301\037\205k?\000\000(A\341z\224>ff\016A\232\231Y?\000\000\010B\256G!?33\363\277\217\302u=ff\000B\232\231\231>\315\314\314=\303\365\250>\232\231\331?\256G\341=ff\010B{\024.?\232\231\231@\217\302u?\315\314\220Afff?\232\231\t\301\303\365h?\000\000\240@{\024.?\315\314\200A{\024.>\232\231\231\277\303\365\250>\232\231\231\300{\024.>\000\000\224A\217\302u?ff\032Bfff?\232\231\017Bq=J?\315\314L\300fff?\315\314\014\301ff&?\000\000\220\300\n\327c?\232\231YA\205\353Q?\315\314\310A\217\302u?ff\016B\315\314L>\000\000\340A\270\036\005>\232\231\021BR\270^?33\203A=\nW?\315\314\214?\037\205k?\315\314\300Aq=\212>\232\231\005B\037\205\353>\232\231\205Aq=\n?333\300\315\314L>\315\314\344A\024\256\307>33\257A\000\000@?ff\034B\\\217B>\232\231\025B\n\327#?\000\000\200\300\217\302\365=ff\246@q=J?33\013\301\037\205k>\000\000\260@\354Q8?\000\000\022Bq=\n?\315\314L>\315\314L?\000\000`AR\270^?33\027B\366(\334>33\303\300R\270\036?ff\346@\n\327#?\000\000\350A)\\\217=33\277A\232\231Y?\232\231\201A{\024\256>\000\000XA\327\2430?\000\000(Aff\346>\000\000(A{\024n?33\243A\327\243\360>\232\231\031@R\270^?fff?\000\000\200>33\003A\217\302u=\232\231\211@\205\353Q?33\373A\315\314\014?\000\000\270A\270\036\005?33\263?\037\205k>ff\326\300q=\212>33cA\303\365h?ff\246A\366(\334>\315\314\314\277\354Q8?33\013B)\\\017?33\rB\217\3025?33\243\300\000\000\200?ff\212A\205\353\021?\000\0008A\n\327c?ff6A\303\365\250>33\373A\217\3025?\315\314\034B\270\036\005?33\363\300\217\302\365>33\377A\354Qx?33\033A)\\O?\232\231\235A\037\205\353>\315\314dA\n\327c?\315\314\354A{\024n?33\323@\354Qx?\315\314\314\276\315\314L?\000\000\214A\n\327\243<\000\000\260A\\\217B?\232\2311A\037\205k>\000\000\030\301\232\231Y?\000\000\030B\270\036\005>ff\030B\270\036\005>33\257A\354Q\270=\232\231\031\300\270\036\205>\315\314\354\300\\\217\002?ff\006B\217\302\365=\000\000\024B\270\036E?\315\314,\300\244p\275>\232\231\331?\n\327\243=\232\231\215A\256G!?\232\231\027B333?\315\314\014@\366(\334>ff\202A\244p}?33\227A\n\327#?ff\302A\n\327\243<\000\000\260A=\n\327>\000\000\220A\366(\034?333\277ff&?\315\314,@\232\231\031>\315\314\204A\341z\224>\000\000\006B\000\000@?ff\216A\217\302\365<ff\022B)\\\017>\232\231\335A\256G\341=ff\346\277)\\\217>ff\246\277\270\036\005?\000\000\270A\000\000@?ff>A\\\217\302>33\377A\n\327#<33\017B\n\327#?\315\314\014\300\n\327\243=33\237A\327\2430?\232\231\311\300{\024.?\000\000\364A\232\231\031>33\343\300=\n\327>\000\000\324A\270\036\005?\232\231\271AR\270\236>\315\314\002B\024\256\307>ff~Aff\346>ff\336A\\\217B>ff\256A\366(\334>ff\202A\341z\224>\232\231\311@\341z\024?ffVA\217\302\365>\315\314\014@\217\302\365<ff\366@\n\327#?\000\000\300?\232\231Y?\232\231\311@\232\231\031>\315\314|A\315\314L=33\357A\217\302\365<\000\000\274A\232\231\231>\000\000\220@\037\205k>\000\000\310Aff&?33\363A33\263>ff\006B\037\205+?ff\202A\037\205\353>\315\314\374A\366(\034?33+A\037\205\353>\232\231!A=\n\027?\000\000\024B\\\217B?\315\314\020B\000\000@?ff\006@\315\314\014?33[A\\\217B>\000\000\034B=\n\327>\232\231QA\341z\024?\315\314\314\277\256G\341>\315\314\024\301\256G\341=\232\231AA\315\314L=\232\231\341A\315\314\314>33[A\270\036E?\232\231y@\366(\\?\315\314\254@)\\\017?33SA\354Q\270=\315\314\010B\037\205+?\315\314\354A\\\217B?ff\202A333?ff\276A\n\327c?\232\231\221A\037\205+?ff\346A\232\231Y?33sA{\024.?\232\231\271\300H\341:?\232\231\275A)\\O?\232\231\271A\232\231\031>\000\000\350A\205\353Q?\232\231\351@{\024.>\232\231\235A\\\217\002?\000\000\020\301\037\205k?\232\231\305A\024\256\307>33\323A{\024\256>33\223A\303\365h?33\363\277\256G!?\000\000\334A\341zT?\315\314\334A\315\314\314=ff^A\217\302u=\232\231\375A\270\036E?\000\000\000B\315\314\314>\232\231\031B\232\231Y?\315\314\270A\315\314L?333A\n\327\243>33\323@\341z\024?33\203@\037\205k>33S@\315\314L=\000\000xA{\024\256>\232\231\351@H\341\372>\232\231\017B\232\231\031>\000\000\254A\\\217\002?\000\000\244Aq=J?\232\231\031B\232\231Y?ff\346?\000\000\200?33\217A\341z\224>\000\000\014B=\n\327>33\267A)\\\217=ff^A\315\314L>\000\000\320@\000\000\200?ff\276Aq=\212>\232\231\021\301R\270\236>\232\231Y@\000\000@?33\027B\315\314\314>\315\314\010Bfff?\000\000\354A\341zT?\232\231IA\n\327#?\232\231\321A\315\314\314>33\333A\315\314\014?\232\231\331A\256G\341>\232\231\371\300q=\n?\000\000\026B\000\000\000?\232\231\025B\\\217\302>33\233A\366(\334>33\273A\217\302u>33\263\277\n\327\243>33\027B\217\302u>ff\206@ff&?\000\000\214A\\\217B>\232\231\031A\354Q8?\000\000\006BR\270\236>\232\231Y@\037\205k?\315\314\034\301\n\327#=\232\231\001B{\024.?33CA\024\256G?\315\314\214\277\\\217\002?33\323@\n\327\243=33{A\217\302u>\000\000\004B\256G\341>\000\000\250AR\270^?\315\314\314>333?\000\000 \300)\\\217=\000\000\310A\315\314\314>\232\231\231\300)\\\217=\000\000\200\277q=\212>33\363?\366(\\?\315\314\224A)\\\017?\000\000\204A\327\2430?33\363?\n\327\243<33\207A\270\036\005>\315\314\354@\366(\\?33\343A\366(\034?\000\000@@=\n\327>\000\000\260A\205\353\021?33\263\300\244p=?33\307A\366(\334>\000\0000A\270\036\205>\000\000\360\300\270\036\205>\232\231\251@\n\327c?ff&@\270\036\005?\000\000\340A\n\327#>fff?\303\365h?\315\314\nBff&?\000\000\324A\000\000\000?ff\366\300\232\231\031?\232\231\025B\327\243p?33\367Aff\346>\232\231\265A=\n\327>\232\231)A\205\353\021?ff\236A\n\327#<33\013\301\354Q\270>ff\026A\327\2430?\315\314\034Aff&?33\023B\024\256G?\315\314\314>\\\217B?ff\326\300\256Ga>\232\231\315A33s?33\217A\270\036E?\315\314\020B\232\231Y?ff\006\300\303\365(?ff\366A\232\231Y?\232\231\tA{\024.?\000\000\034B\037\205\353>ff>A33\263>\315\314lA)\\\017>\000\000@\300\315\314L?ff\212A\315\314\314>\232\231\271@\256G\341>\232\231\021B=\nW>ff\016\301H\341\372>33\327A\\\217\302>\315\314\330A=\n\027?33\343\300R\270\236>ff~A\037\205k?ffVA\217\302u?\000\000\330A)\\\217=\000\000\010\301\366(\334>\232\231\221A)\\\217=\232\231Y@\n\327\243<33\263@=\nW>\315\314L>\000\000@?\000\000@@\205\353Q?\232\231\231\300\354Q\270>ff\262A\\\217B>33\031B\037\205+?\232\231\241A\256Ga?\232\231\231@\037\205k?\000\000xA\256G\341=\000\000\020B\\\217B>ff\326A\303\365(?\232\231\325A\037\205k>\315\314\300A\315\314\314>\000\000\020\301{\024\256>\232\231y@\000\000@?\232\231\331A\341z\024?\000\000\036B\000\000@?\232\231\311@\217\302\365>\232\231\375A\315\314L?\232\231\231@H\341:?\232\231\325A=\nW?\315\314L\277\037\205\353>\000\000\374A\244p}?ff&A\270\036\005?33\033A\341zT?ffnA33\263>\000\000\340@=\n\327>\315\314\314@H\341z?\315\314L\277ff\346>\315\314\314A\303\365\250>ff\016A\244p\275>\000\000\024Bq=J?fff\300\217\3025?33\303\300\n\327#<\315\314\354@{\024n?\232\231\241A\256Ga?ff\346@\315\314L?\315\314\006B\244p=?\000\000\240@\024\256\307>ff\024B\327\2430?\315\314\034A\217\302u=ffF\300\205\353Q?33\013B=\n\027?\315\314\314\275\366(\334>\232\2319\300\244p\275>33\021B\354Qx?ff\306A\024\256\007?\315\314\314A\244p}?\315\314\314>H\341z?33\353A\n\327c?ff\030B\n\327\243=\000\000\310A\000\000\000?\232\231IA=\nW?\232\231\331?\205\353\021?\315\314\036B\232\231\031?33\223\300\366(\\?\000\000\250A)\\\217=33\337A\037\205\353>\315\314L\276\256Ga?ff\246\300\232\231\231>\000\000\022B\024\256\307>ff\326@\270\036\205>\000\000\020Bq=\212>\000\000\220\300\341zT?\232\231QA\024\256\007?\232\231\351A\217\302\365=\232\231\231\300\232\231\031>\232\231\005B\270\036\005>\000\000@A\354Qx?\232\231\001Aq=J?\315\314dA\232\231\231>\000\000xA{\024n?\000\000 B\327\243\360>\000\000\374Aq=J?\000\000\300\277q=\n?\000\000\360AH\341\372>\315\314l@\270\036\205>33\037B\217\302u>\315\314\004B=\nW?\315\314\026B\327\243\360>\232\231\345A\\\217\002?\000\000\300?\303\365h?\000\000\036B\341z\024?\315\314LA\217\3025?ff\246@=\n\327>33\243A\354Q\270>\315\314\214?\217\302u>\315\314\022B\\\217B>\000\000\340A\341z\224>fff@H\341:?\315\314\\A\327\2430?\232\231y\300\217\302u?\232\231\325A\037\205k?ff\016B\270\036\005?ff\006A\354Qx?\232\231\211\300R\270^?\232\231\251\300\270\036\005?\315\314\004A\232\231\231>\232\231\215A\244p}?33\203AH\341:?\315\314\370AH\341z?33\363@R\270\236>ff\016\301\315\314L=333?\315\314L=\000\000\314A\000\000\200>\232\231\275AR\270\036?33\243A\256G\341>33\363@\270\036\005>\232\231\205AH\341\372>33\213A\217\3025?\000\000\360\300\232\231\231>\315\314\354\300\000\000\200>\000\000\354A\n\327\243=\315\314\234\300\217\3025?\232\231\231@\327\243p?ff\256A\315\314L=\232\231\205Aq=\n?33\323AH\341:?\232\231\033B\000\000\000?\315\314\034B)\\\217>\315\314\334@\354Q\270>\315\314\314@\000\000\200?\232\231\331\300\366(\034?33\263@\256Ga?ff\014B\315\314\314=ff\006\300\256G\341>\315\314\240A\366(\334>\000\000\274AH\341:?33\313A\217\302u?33\363@\270\036\005?\315\314\314\276=\nW>\232\231\tA\315\314L?\315\314\254@\354Q8?\000\000\270A{\024.?\315\314\004B\244p}?\232\231\033B\217\302u=ff\002B\256G\341=\000\000`@\354Q\270>\000\000\300\300fff?33\323\300\327\243\360>33SA\024\256\007?\000\000\250A\244p\275>\000\000\330Aff\346>\232\231\331@fff?33\027B\000\000@?\315\314\230AH\341z?\000\000\320A\n\327#<\315\314\314\27533s?\315\314\324A\232\231\031?ff\346@\217\302u>ff\346\300\n\327c?ffNA=\n\327>\315\314\230A\303\365\250>\315\314\330A)\\\217>fffA\\\217B>\000\000\210A\\\217B?\232\231\021A\217\3025?ff\366\300\217\302\365=33\203@H\341z?33\247A\217\3025?ff\002Bq=J?\315\314\014\300\354Q8?\000\000@\300\244p=?\315\314\234A\315\314\314>\232\2319@\327\2430?\315\314\364A{\024n?ffVA\\\217\302>\315\314\314>\270\036\005>\000\000 @\217\302u=\315\314L?\244p=?\232\231\211\300H\341:?\315\314\024A\303\365h?\315\314\274\300\037\205\353>\315\314\354A\000\000@?33\337Afff?\232\231\231?\217\302u=ff\016B=\nW?33\303\300\244p}?ff\006B)\\\017?\000\000\026B\354Q8>\232\231\031BR\270\036?\232\231\001A\315\314L>\232\231\331?\n\327#>\232\231\031?\000\000\200>\000\000\030A\037\205k?ffnA\256G\341=\232\231\031Bff\346>\000\000\030\301\205\353Q?ff^AH\341z?\315\314\334@\217\302u?\232\231\265AR\270^?\315\314\300AH\341\372>33\377A\000\000\000?33\023@\217\302u=\315\314\274@{\024.?33\003A\037\205k>ff\342A\366(\\?\315\314\214\277\341zT?ff\246@\366(\334>\315\314|A\217\3025?\232\231\311\300\256G\341>\315\314\300A\341zT?\232\231\033B=\nW?\232\231\035B)\\O?33\367A\354Q\270>\000\000\260@\341z\224>\000\000\204A\327\243p?ff\016\301)\\O?\000\000\024B\\\217\302>\315\314\000B\n\327c?\000\000\364AH\341z?ffFAfff?ff\306\300\n\327c?33\277A\256G!?\000\000\036B\217\3025?ff\006B)\\\017>\232\231\261A\315\314\314>ff\212A\\\217\302>\232\231iA=\n\027?\000\000\240\300\217\302u?\232\231\331A\315\314\014?\000\000\230A\366(\334>\232\231\001\301)\\\217=\232\231\231>\366(\034?\232\231IA\256Ga>\315\314\024B{\024.>ff\006B\n\327\243=ff\006B\327\2430?\315\314\314=R\270\236>\000\000\000\277\n\327\243<\315\314,\300R\270\036?33\273A\n\327#?\000\000HA\315\314\314=ff\226A\244p\275>\000\000\020\301\341z\024?\315\314\334\300R\270\036?\000\000\024BR\270\036?\315\314\002B\205\353\321>\232\231\251@\354Q8>ff.A)\\\017?33\213A\354Q8>ff\032B{\024.>33\023\300\270\036E?333?\366(\334>\232\231\231\300\270\036\205>\232\231\023B\024\256\007?\232\231\265A\270\036\205>\000\000\350A\205\353\021?\232\231\031@H\341:?\315\314\274@\354Q8?ff\216AR\270\236>ff\226@333?ff\226\300\024\256\307>\000\000\220\300ff\346>ff6A\205\353Q?ff\366A\037\205k>\315\314\374\300=\nW>\000\000(A\n\327\243>\232\231\003B=\n\327>ff\206@\037\205k?33KA\n\327#=\232\231\331\300\341zT?\315\314\002B\037\205\353>33\363\277\270\036\005?\315\314\\A\232\231\031?\315\314\314?\315\314L?33kA\232\231Y?ff\016B\366(\334>ff\016A\232\231\231>\232\231\rB\232\231Y?\232\231\251@\\\217\002?\232\231\231\300\303\365\250>ffNA\354Q\270>\315\314\230A\256G\341>\000\000PA\205\353Q?\232\231\231\277\037\205k>ff\006\300\315\314L?\315\314\230A\n\327\243<33\363?\366(\\?333@\270\036\005?\000\000\260\300\n\327#<ff\202A=\n\327>\232\231\331A\354Q8?\232\231\231\276\205\353\021?\315\314\314\275=\n\027?\000\000\010\301{\024.>ff\306@\\\217B>\232\231)A\232\231\231>\000\000\370A\354Q8>ff\246A\024\256G?\315\314\254AH\341\372>\000\000\010B\354Q\270=\232\231\245A\327\243\360>33\033B\024\256\307>33;Aq=\212>\232\231\331@\327\243\360>\232\231\tB\\\217\002?ff\014B\232\231\031>\000\000\006B\232\231Y?33\027B\354Q8?\000\000\200@\232\231\031>\232\231\351\300\270\036\005?\315\314\374@ff\346>ff\336A)\\\017>33\263\300\037\205k>\315\314\360AR\270\036?\315\314\030B\n\327\243<ff\272A)\\O?ff\366\300\205\353\021?\000\0008A{\024n?\232\231\211A\244p\275>\000\000\024B=\nW?ff&@\354Q\270>33\033Afff?ff\252A\315\314\314=33\307A{\024\256>\000\000\022BH\341:?fff\277\327\2430?\232\231\271\300\366(\034?\000\000\030B\024\256\007?\000\000xA\n\327#<\232\231\rB=\nW>\232\231Y@\\\217\302>ff\356A{\024.?33\027B\315\314\314>\232\231\315A\244p=?\315\314\034BR\270\236>\232\231\261A\315\314L>\000\000\230A\n\327#<ff^A=\n\327>\315\314\032B{\024.?\000\0008A\\\217\302>\232\231\321A\315\314\014?\232\2319AH\341\372>\232\231aA\303\365\250>\315\314\020B\327\243\360>\000\000\030A33\263>\315\314\022Bq=\n?\000\000XA=\n\027?fff\300{\024n?\315\314\020B=\nW?\232\231\261A\217\302u>\315\314\334A\341z\224>\000\000\360\300\303\365h?33\223\30033\263>\000\000\340@33\263>\315\314\nB\205\353\321>\232\231\221A)\\\017>\232\231\031\300\n\327#<33\373A\037\205\353>33\317A333?\232\231\231\300)\\\017>\000\000\002B\232\231\031>\315\314\240A{\024n?33\023A\232\231\231>33\263A)\\\217>\315\314\310A\244p\275>\000\000\000A\024\256\007?\232\231\rB\024\256G?33\233AH\341z?\232\2311A\327\243p?\232\231\305A\217\302\365>ff\326A\217\302\365=33\307A\270\036\005?\315\314<A\354Q8>33sAq=J?ff\032B\256Ga?\000\000\204A\341z\224>\000\000\010B\217\302\365<33\003A\024\256\007?33\017B\\\217B?\000\000@@\\\217\002?\000\000\240\300{\024n?ffVA\366(\034?\232\231\031?\232\231\031?ff\256A)\\\017>\232\231\231\277\354Qx?ff\356A\\\217\002?ff\004B\354Q\270>ff\312A{\024n?\232\231\245A\024\256G?\232\231\271A\341z\224>\315\314\334\300\n\327#<fffA\315\314\014?\232\231\007B\341z\024?\000\000\234A\n\327\243>33\247A\037\205k>\232\231\365A\354Q\270>\000\000`\300\n\327c?\232\231Y\300\037\205k?\315\3144A\244p=?\232\231\rB\303\365(?\000\000\340A\000\000\000\000\315\314\220A\024\256\007?\315\314,@33s?\315\314\004B\217\302\365=33\233A)\\\217>\000\000\254A\000\000@?\000\000`\300H\341\372>\315\314\334A\256Ga?\000\000\344A\037\205k>ff\034BR\270\236>\232\231\021\301\366(\\?33\243\300\\\217\302>33\223@\n\327\243<\000\000\030A\217\302u?\315\314\214\300\205\353Q?33\013AR\270^?\315\314\214\277\315\314L>\232\231\271A\256Ga?\000\000\200?{\024.?\315\314\006B\217\302\365>33\363\300\\\217B?33\343@=\n\027?\000\000\006B33s?\315\314l@=\nW?\232\231qA\232\231Y?ff\272AR\270\036?\232\231\265Aq=\n?ff\246@\000\000\000?ff\366\300\270\036\005>\315\314\234\300\256G\341>\315\314\024B\024\256\307>\000\000\360@\315\314\314>ff\372A\232\231\231>\232\231\311A\315\314\014?\315\314\274\300\\\217B?\000\000\000\301\024\256\007?ff\262A)\\\217=\000\000\340@\\\217B?\000\0000AR\270^?\315\314\320A\303\365\250>\315\314\024A\217\302u?\315\314\014@R\270\236>\315\314\274@\256Ga>\232\2311Aff\346>\232\231\001B\\\217B?\232\231\013B\024\256\307>33\013B\037\205k>\000\000\210A\n\327\243=\232\231)A\270\036\205>\315\314\014@\217\302\365<\000\000\034B)\\\017>\232\231\371@\n\327c?\232\231\325A=\n\327>333\277\303\365(?\232\231\231\277\256Ga?33\253A)\\\017?\315\314\000B\n\327#?\000\000\000A\270\036E?\232\231\031?\024\256G?ff~A\315\314L?\232\231\033B)\\\217>\232\2319A{\024\256>33\263@\232\231\031?\000\000\310A\037\205\353>\232\231\241A\205\353\021?\232\231IA\315\314L=\315\314\230Aq=\n?\315\314\374@\232\231\231>\000\000\344A\232\231Y?\000\000\230A)\\\217=\232\231\271@\232\231Y?ff\346\277\354Q8>\000\000\364A\217\302u>\000\000\350A\327\243p?\000\000\304A\270\036\005?ff\216A\024\256\007?\232\231\331?=\nW?33\303A=\n\327>ffF@\327\243\360>33\353A\366(\334>\315\314\314?33s?\000\000\354A\256Ga>\315\314dA\366(\034?\000\000\034B\\\217\002?\232\231\211@{\024n?\000\000\nB\354Q\270=\232\231\231@H\341z?\315\314<A\232\231\231>ff\306@)\\\017>\232\231\271A\327\243p?ff\326@\341z\224>\232\231qA\217\302u>ff\010B)\\\017>\315\314\214\300\037\205\353>\315\314\374A\256G!?\000\000\240A\217\302u?\232\231\335A\000\000@?33\003B\217\3025?ff\346?\256G\341=\000\000\344A\\\217\002?\000\000\000?)\\\017>ff\236A\354Q\270>\000\000\030\301\366(\034?\000\000\220\300R\270^?ff\206\300q=\n?\232\231\361A\037\205\353>ff\006A\232\231\031>\232\231\031@\315\314\014?fff?\327\243\360>ff\242A\256G\341>ff\036\301\037\205\353>\000\000\260A\270\036E?\315\314\300Aq=\n?\232\231\031@\037\205+?\000\000\200\300\n\327c?33\023B\256Ga>33\263?\217\302\365<33\023@\n\327#?33CA\205\353\021?33{A\217\302\365=\000\000\200?q=J?\315\314\014@ff&?\315\314|A\270\036\205>\315\314\026B)\\\217>\232\231\tB\315\314\014?ff\352A\315\314\314>\315\314\032B\354Q8?ff\246Aff&?\232\231\231>\037\205k?ff\246A\232\231Y?\000\000(A)\\O?33\207A)\\\217>\315\314\314>\354Qx?\232\231\tA\270\036\005>\000\000\250A=\nW?33\203A\303\365(?ff\276A\327\2430?ff\326A\341z\224>\000\000\006BH\341:?\315\314\234@\217\302\365<\232\231\231\276=\n\327>ff\206\300\232\231Y?\315\314L\300H\341z?33\035B\354Q\270>33\323\300\315\314\014?\232\231\031B\256Ga?\000\000\000B)\\\017?\000\000\210A\244p=?33\253AR\270\236>\000\000\020B\354Q\270=\232\231\231?\315\314\014?\000\000\204A\232\231Y?\000\000\200\300H\341:?33\023@\270\036\005>33\303@)\\\217>\315\314<A333?ff\302A{\024.>\000\000\224A\217\302u>\232\231\351A\366(\034?\000\000\020\301H\341\372>\000\000\314A\256Ga?\232\2319AH\341\372>\000\000 \301\315\314\014?\000\000\300?\303\365\250>\000\000\260\300\354Q\270>33+A\205\353\021?\315\314\334@\205\353\321>ff\376A33s?\315\314\314\276\256Ga>33\247A\217\302u=\315\314\260A=\n\027?\000\000\370A\n\327\243=\232\231\231?H\341z?33\263@\217\3025?\232\231\025B\n\327c?ff\236Aq=J?ff\326@ff\346>33\005BH\341z?\232\231\tB)\\\017?\315\314\224A\\\217\302>ff\252A\315\314L?\315\314\014A\000\000\200>\000\000\036B\256G\341=33;AH\341:?\000\000\004B\n\327#>ff\336A=\n\027?ff\342Aq=J?ff\346?\315\314\014?\232\231\251A\217\302\365>\232\231\331\277\n\327#=ff\016B)\\\017?\315\314\014B{\024.>33\263?\256G\341=33\363@\024\256\007?\232\231\325A\\\217B?\315\314L\277)\\\017>33\373A\\\217B>\232\231\231\277\327\243p?33\307A\354Q8?\000\000\000\300\232\231Y?\315\314tA\270\036\205>33\017B\232\231Y?ff\026A\327\2430?\232\231y\300\256Ga>\232\231\021B\n\327\243>33[A\n\327\243>\315\314\020B\037\205+?\000\000\000@\232\231\031>33\025B\256Ga>\315\314\260A)\\\017>ffnA)\\O?\232\231\231@\354Q\270=ffnA\244p=?\232\231\003B\037\205\353>ff\226@R\270\236>\232\231)A\\\217B>\000\000\020A=\nW?\000\000\270A\341zT?\000\000\220@\327\243p?33\247A)\\\017?ff\372A\037\205k?\232\231\345A\205\353Q?\232\231\021B\354Qx?33\363\277\n\327#<33\263\300\n\327#<\315\314\004A\270\036\205>33\023B\037\205k?\000\000\204Aq=\212>\000\000\310A\366(\334>33\233AR\270\036?ffF@)\\\017?\000\000\360\300\232\231\031>\000\000\032B{\024n?\000\000\374AR\270\236>\315\314\210A{\024\256>\315\314\000B\\\217\302>\000\000\006B\024\256G?\232\231\251A\256G\341=\232\231\255A\\\217B?\232\231\221A)\\O?ff\026B=\n\027?\232\2319A\024\256\007?\232\231\031\277\315\314L?\000\000\274A\037\205+?\232\231\271AH\341\372>\000\000\026BH\341z?\232\231\035B{\024.>ff\032B\037\205+?\315\314|A\303\365(?\315\314\032B\256Ga>33CA{\024.?33\313A\037\205k?\315\314\214A\037\205\353>ff\006@\024\256\307>33\013A=\n\027?ff\026\301\n\327c?\315\314\020B)\\\017>\232\231\005B\315\314L?\000\000\300@\\\217B>\232\231\231>\315\314\314>ff\nB\n\327#>\000\000\364A=\n\327>33\363\30033\263>\232\231\251\300H\341z?33\223Afff?\232\231\001B=\n\327>ff\036A\270\036\005?ff\316A\000\000@?\000\000\030\301\256G\341>\000\000\244A\n\327#=\232\231\231\277\270\036\005>\315\314L?q=J?33\373Afff?ff\030B\n\327#>\000\000\274A\270\036\205>\315\314l\300fff?\315\314\314@\303\365(?\000\000\006B\\\217\302>\000\000\204A=\n\027?\315\314\304A\270\036\005>33\263?33s?\232\231\251A\217\302\365=\232\231\335A\366(\034?\232\231\037B\354Q8>\315\314\006Bff&?\315\314TA33s?\000\000\360@ff&?ff&A\315\314L>\232\231\361A)\\\017>\000\000\350A\315\314L=\000\000\020B\217\302\365=333?\n\327\243=\000\0000A\\\217\002?ff\366A\024\256G?\000\000\032B\270\036E?ff\226@q=\n?ff6A\341z\024?ff\352AH\341z?\000\000@@\244p}?\000\000\320@\341z\024?33\203\300\n\327#>\000\000PA\315\314L?ff\376A\n\327#?\232\231\037B\217\302u=\000\000\026B\256Ga?\232\231\031\301\217\302u?ff&A\354Q\270>\315\314\314=\n\327\243<33\003B\000\000@?\000\000\364A\315\314\014?\315\314\370A\037\205k?\000\000\022B\205\353\321>\000\000\220\300\270\036\205>ff\266@\256G\341=\232\231\311@{\024.?ff\246AR\270^?\232\231\013B\n\327#=\000\000`@R\270\236>\000\000\300@=\nW>\315\314\374A\256Ga?\315\314\300A\\\217B?\315\314\350AR\270^?\232\231\241A\205\353\021?\232\231\225AH\341:?\232\231\rB\000\000\200>\232\231\235A\n\327#<ff\206@\217\302u>\000\000XA\024\256G?\232\231!A\315\314\314=ff\372A)\\O?\000\000hA{\024.>\000\000\224A\217\3025?\315\314<A\315\314L=\315\3144A\303\365\250>ff\030B)\\\217>\000\000\220A\205\353Q?\000\000\034B\366(\334>\232\231\031?\205\353\321>\315\314\374\300\\\217\302>\000\000\340\300\232\231\031>ff\226@\232\231\231>\315\314\320A\256Ga?\232\231iA{\024.?\000\0000A)\\\217>ff\032B\000\000@?\232\231\251@)\\\017?33\237A\232\231Y?\000\000\220\300\n\327#>\232\231\215A{\024.?\315\314L\276\256Ga?\315\314\354A=\nW>\315\314tA\205\353Q?\000\000\006B\205\353\321>33\323A\\\217B?ff\376A\315\314L=33{A\354Q8?33\203@\315\314\314=333\277\270\036\005>33\013\301\244p}?\232\231\003B\\\217\302>\000\000\016B\n\327\243=\232\231\351A\232\231\031?33\017B\205\353\021?33\013\301\256G\341>\000\000\300\277q=\212>\232\231\035B\354Qx?33\003A\341z\024?\000\000\220A\327\2430?33\303@33s?ff\206\300\n\327\243<\315\314\314>H\341:?ff\346@\205\353Q?\315\314LAfff?\000\000@@\\\217\302>\315\314\374\300\327\243\360>fff?R\270\236>33\313A\217\302\365<ff\032BR\270\036?\232\231\211@\327\2430?\232\231\001B\366(\334>\000\000@Afff?ff\252A\000\000\000?\315\314\370A{\024.>\000\000\020A\315\314L=\315\314\034A\315\314L=\315\314\234@\217\302\365<\315\314\200A\244p=?\315\314\014B\232\231Y?\000\000\000?\205\353Q?\315\314\010B\217\302\365<\000\000\200\300R\270\236>33\203\300\217\302u?\232\231\017B\n\327#=\315\314\024\301\315\314L>\000\000\000?\\\217B>\315\314\024\301R\270\236>\000\000\nB\270\036\205>\315\314\014\300\217\302u=33\223@\256G\341=\232\231!A\341zT?\232\231\305A\315\314L=\232\231Y\300\024\256\307>\315\314\010B\217\302\365<\000\000\254A33s?ff~A\232\231\031>\000\000\274A\256Ga?\000\000@@\\\217\002?33\031B\205\353Q?\000\000@@=\n\327>33+A333?\232\231\tB\341z\224>ff\326A\\\217\302>\315\314\204A{\024\256>\000\000\030A=\nW>\000\000\320A\315\314\014?ff\232Aff&?33\203A\037\205\353>\232\231qA\366(\\?\000\000\200A\303\365(?\232\231\325A=\nW?\232\231\021B\037\205k?33\023B\270\036\005>\000\000\360A\341zT?\000\000\350A\315\314L?\000\000`@\\\217\002?\232\231\231Afff?\232\231\311A=\nW?\232\231YA)\\\217=fffA\303\365\250>\315\314\nB\000\000\200>33\337A\303\365\250>\315\314\014@H\341z?\315\314\324A\217\302\365=ff\222A\315\314\014?ff\002Bq=\n?\232\231\rB\315\314\014?\000\000\374A\256Ga>\000\000xA\256Ga?\315\314\314A=\nW?ff\336A\270\036\205>\315\314\374@\n\327#?33\303A\217\302\365>\315\314\314\276\315\314L>\315\314DA\037\205k>\315\314\304A\315\314\314>ff\216A{\024.?33cA\\\217\002?\232\231\033B=\nW>\000\000\230A\354Q\270=\000\000 A\205\353\321>\000\000\036Bff&?\315\314\204A\303\365(?ff\246A\n\327\243<33s\300\000\000\000\000\315\314\230A\\\217B>ff\212A\270\036\005>33\021B\354Q8?\232\231\205A\303\365(?ff\316A\217\302u>\315\314\354A\205\353Q?\315\314\000B\354Q8>\000\000\014B\232\231Y?\315\314\014A\256G!?\315\314\030BH\341:?33\033B\256G\341=33\303A\315\314\314>\000\000\000@{\024\256>\232\231\035B33s?\000\000\340@)\\\217>\315\314\214?R\270^?ff\326@\n\327c?ff\252A\217\3025?fff@=\n\327>\232\231\335A\256G\341=\315\314L>{\024n?\000\000XA\205\353\021?33s\300)\\O?33\033A\315\314L?\000\000\304A=\nW>\000\000\020B\217\302u=\000\000\000\301\244p=?\232\231\013B\217\302\365<ff\306A\\\217B>\232\231\tAH\341:?\315\314\024\301)\\\017>33\037B\217\302\365=\232\231\031Bq=\n?\232\231\231?R\270\036?\315\314\330A33\263>33\373AH\341:?\000\000`@\217\302\365<\315\314\270A\354Q8>\000\000\300A\256Ga?\315\314TA{\024.?\315\314\374@\256Ga?ff\356A\256G\341>33\033\301\315\314L=33\303\300\037\205+?ff\246?\270\036\205>33\343@\024\256G?\315\314\014A\217\3025?\232\231aA\217\302u=\315\314\034\301\\\217B>\315\314\344A\244p=?\000\000PA\\\217\302>ff\306A\366(\334>33\263?\270\036\205>\232\231\035B\303\365h?\000\000\000A\327\243\360>\000\000\200\300{\024\256>\315\314\214\300\037\205k>\000\000\260@{\024.?ff\346\277\341z\024?ff\004B\303\365\250>\315\314\354\300)\\\017>\315\314\004B\315\314L?\232\231\345A\315\314L?ffnA33\263>33\203A\256G\341>\232\231\331\300\\\217\302>\315\314\014\301\315\314\314=33\357A\n\327c?ff\016B=\nW?\000\000\200\300\315\314\014?\232\231\001A)\\O?\000\000\020\301\303\365\250>\000\000\264Aff\346>\000\000\260@\366(\034?\000\000\200\277\270\036\005>\315\314l@\315\314L>33\323\300\037\205k?\000\000\000?\232\231Y?ff\366\300\303\365\250>\000\000\320A\270\036\005?\232\231\235A\315\314L>ff\306\300fff?\000\000\000\300\270\036\005>33\021Bff&?\315\314\314=\024\256\007?33\303A\232\231\031?ff\362AH\341\372>33S\300\354Qx?33sA\\\217\302>33\363@\270\036E?\315\314\014\300\217\302u=33S\30033\263>\232\231\231@\270\036E?\315\314\034\301\232\231\231>\232\231\031B\366(\034?ff\024B\205\353\021?\232\231\321A\217\302\365<\000\000\254A\217\302u>33\323@\303\365\250>33+A\341z\024?ff\326@\327\243p?ff\nB\n\327c?33\243\300\217\3025?33\303@R\270\036?33\035B\366(\034?ff\014B\354Q\270>\000\000\010A\037\205+?ff\016\301R\270\036?\315\314\020B\270\036\005>\232\231YAff\346>\000\000\360Aff\346>\232\231\241A\\\217B?\315\314\036B)\\\017?\315\314\264A=\nW>\315\314,@\244p}?\315\314\320A\270\036E?33\343@\244p\275>\315\314\274A\217\302u?\232\2319@\037\205k?\232\231\031@\315\314L?ff6A)\\O?\315\314\014B\354Q8?\232\231\301AH\341:?ff\316Aff&?\315\314\014\300\217\302u=ff\036B\341z\224>\232\231\027B\256Ga>\000\000\022B\270\036\005>33\263A\315\314L?ff\346\277ff&?\315\314\010B\341z\224>\000\000\330A\n\327#<\000\000\330AH\341\372>\232\231\301AH\341:?\315\314\234@ff&?33\343@\000\000\000\000\000\000\230A)\\\217=\315\314\314==\n\327>33s@\244p\275>\232\231\035B\244p}?33\021B\205\353Q?\000\000\360@\366(\034?ff\342A\000\000\000\000\315\314\330A\354Q\270=\000\000\220\300\256Ga>ffVAq=\n?\315\314\026B\366(\\?\232\231\331A\\\217B?\315\314LA\315\314\314=\232\231\211@)\\\217>ff\272A\354Qx?ffFA\341z\224>\232\231yA\n\327#<33\323@\270\036\005>\232\231\rB\244p=?\315\314L\277\217\302\365=\315\314\014@\024\256\307>\000\000\000\000{\024.>ff\326\300\217\302\365<33\021B\037\205+?\315\314\254@)\\\217>\232\231\361A\354Q8?\232\231\375A\205\353Q?33\027BH\341z?ff\024B\037\205k?\315\314\324A\232\231\031>\232\231\215A\232\231Y?\315\314\014\300=\n\327>\232\231\331?\366(\034?\232\231\255A\\\217\002?ff\306\300\366(\034?\232\231QA\256Ga>ff\026A\\\217\002?33\027B\217\3025?\000\000\022B\024\256\307>\315\314\032B\n\327#>ff\322A\256G\341>\315\314\354A\\\217\302>\000\0008AH\341:?\315\314\274@\270\036\005>\000\000\020A\024\256G?ff\006@\024\256G?\315\314tA\217\302\365<\000\000 B\232\231Y?\232\231\027B\217\302\365<\000\000\030A)\\\017>\000\000 \300\327\243p?ff\232AH\341z?ff.A\217\302\365=\000\000`@33s?\232\231iA\366(\034?\232\231\031@\037\205k>\000\000\004BR\270^?33\203\300H\341:?\000\000\360A\\\217\002?33\317A\303\365h?33kA\270\036\205>\232\231\231\277=\n\327>\000\000\032B)\\\017?\232\231\251A\327\243p?\315\314\nBH\341\372>\000\000\360@\217\302\365<\000\000\264A\037\205k?\315\314\254@{\024\256>\000\000\020\301\217\302\365>ffvA=\n\027?33\363@\232\231\031?ff\332A\n\327#?\000\000\304A\024\256\307>\232\231\031?\n\327\243<\000\000\020\301=\nW>\232\231\027B\354Q8?\000\000\324AR\270^?ff\232A33\263>\000\000\000\301\303\365\250>33+Aq=J?\315\314\234@\270\036\005?\000\000\340A\303\365\250>ff&@\037\205k>\315\314\330A\270\036\005?33kA\354Q8?\232\231\t\301\024\256\307>\315\314\364A\217\3025?ff\246@\303\365\250>\232\231\251A\217\302u=\315\314\024A333?33\323A\256G\341>\232\231\321A\n\327#>33CA\232\231\031>ffFA\217\302\365=\315\314TA\\\217B>\232\231\305A\244p\275>\315\314\360A\366(\\?\315\314\244AH\341z?33\237A\303\365\250>\315\314\024\301\256G!?\000\000HA\n\327c?\315\314<A\270\036E?\000\0008A\\\217B>\232\231y@{\024.>\232\2319@\303\365h?\232\231\215A\n\327#<\315\314\320A\n\327#=\315\314\026BR\270\036?33\337A{\024.>\232\231Y\300\n\327\243=\000\000\260\300\315\314L?ff\246\277\205\353\321>ff\016\301\256G\341>ffF@fff?\000\000pA\000\000\200>\315\314\254\300\354Qx?33\373Aff&?ff\336A\366(\334>\000\000\024BH\341\372>ff\006B\303\365(?\000\000XAq=\212>\232\231\235A)\\O?\000\000HA\270\036\205>33\013A)\\\017?\000\000\360A\270\036E?\000\000@\300\\\217\002?\315\314l\300\256G\341=\315\314\324A\256G\341>\315\314\\A\244p\275>\232\231\371\300ff\346>33\363\277\256Ga?33\253A\n\327\243<\232\231IA{\024.?33cA\232\231Y?\232\231\211\300\315\314\314=\232\231\271\300\366(\034?\232\231\231@\232\231\031?\232\231\tB\303\365h?33\023A33\263>\000\000\354A\205\353Q?ff\034B{\024\256>\315\314\020B\000\000\000?33\353A{\024\256>\000\000\004BH\341:?\000\000\260@33\263>\232\231yA\\\217\302>\232\231\275A\244p\275>33\003\301\217\302\365>\000\000\320A\037\205+?33\023@\037\205\353>\232\231\231\300\341zT?\000\000\240@q=\n?\000\000(A\217\302\365>ff\036B\217\302u>\315\314L>\315\314L=\000\000\220A\n\327#?\232\231\205A\205\353\021?\232\231\271A\341zT?\000\000\200\277\232\231Y?33\023@\n\327#<33sA\256G!?33sA\244p\275>33\207A\232\231\031?33\313A\354Q8?\232\231\331A\256Ga?\232\231\211A\n\327#=\232\231\211\300{\024n?\000\000hA\217\302u?\000\000\000B\024\256\307>\000\000\220@\354Q8?\000\000 @\341z\224>\000\0000A\037\205+?ff\246A\037\205\353>\000\000\274A\315\314\314=\232\231!A\303\365(?33\023\301\217\302u?\232\231\031B\327\2430?ff\206AR\270\236>\232\231\371\300\354Q8>\315\314L?\037\205+?\315\314\014\301R\270\036?ff\002B\315\314L=\000\000\260A\327\243p?ff\034B\354Qx?33\017B\n\327\243=\000\000\204A\232\231\031?\315\314\004B33s?33\323A\024\256G?33\023@\315\314\314=\315\314\314\275\256G\341=\232\231\031\301\n\327\243=\000\000\254A\354Q8?ff\256A=\nW?33\017B\037\205k?\000\000\374A=\nW>\000\000\214A)\\\217>fff\300R\270\036?33\021B\270\036\005?ff\004B\217\302\365>\315\314L@\037\205k?33\023AR\270\236>\315\314\006B\000\000@?\315\314\214?\217\3025?\000\000 @\n\327c?33\243\300)\\O?\232\231\t\301\217\302\365=\315\314l\300\354Q\270=\315\314dA\244p=?\232\231\331\277\256Ga?ff\366@\n\327#=\315\314\214@{\024.?\232\231\031\300\244p\275>\000\000\330A\n\327\243>\315\314tA\217\302u>ff\226A\366(\\?33\005B\341z\224>ffVAq=\212>33\327AR\270\036?\232\231\211A333?\315\314L\276\n\327\243=33s@)\\\017?\315\314L>\217\302u=ff\006@33s?\000\000\314A33\263>\000\000HA\244p}?ff\026\301\\\217\002?33\023\300\217\3025?\232\231\231?q=\n?\315\314\014A\354Qx?\315\314\234@\232\231Y?ff\032B\232\231\031>\000\000\270A{\024.?\232\231\351\300\303\365(?33\013\301ff&?\232\231\355Afff?33\233A\244p\275>33\303\300\327\243\360>ff\322A)\\O?\000\000\350A\256G\341=\315\314dA\315\314L=\315\314\374@\256G\341=ff\206\300\000\000\000\000\315\314\250A{\024.?\232\231QA\000\000\000\00033\377A\327\243\360>\315\314\310A\024\256G?\232\231\265A\037\205+?\315\314l\300H\341\372>\315\314\310A\270\036E?33\307A\217\302\365>33\243@33\263>33\363\277\024\256G?333\277\366(\334>\232\231\031B\217\302\365>33\013A=\nW>\232\231\265A\n\327\243>\315\314\030Bq=\n?33\363\300\256G!?\000\000\270A)\\\017>33\323@\n\327#<\315\314\022B33s?ff\376A\315\314\014?ff&\300333?\000\000\030B\205\353\321>ff\246\300\256G\341>33\343\300\327\2430?33\207A\024\256\307>\315\314\214A=\nW?\315\314\330A\n\327\243>\000\000PAfff?ffvA\\\217\302>ff\366@ff\346>\232\231\031A\n\327#>\232\231\311\300\315\314L=33\237A\217\302u?\232\231\231>H\341\372>33\363A\315\314L=\232\231\311A\315\314\314=33\017B\303\365\250>\000\000@@\n\327#=\000\000XA\024\256\307>\232\231\315A\217\3025?\000\000`@\217\302u=\315\314\374A\232\231\031>33\003\301\327\2430?\315\314L\300\303\365(?\232\231Y@)\\\217>33\223A\354Q8>\315\314\374A{\024\256>\232\2319\300q=J?\232\231\021\301{\024.>\232\231\301A\303\365(?33S@\315\314\014?\000\000\200\300\354Q\270>ffNA\n\327\243=\000\000\360AH\341z?33\303@fff?ff\242A\\\217\302>\000\0000A\037\205k>ff\024B\205\353Q?\315\314\374A\n\327#?\232\231\001A)\\\017>33\023\300fff?\000\000\nB\232\231Y?33\303@\232\231\031?\000\000\000?\232\231\031>\315\314l@\303\365h?33\343@\270\036E?33\263\277\205\353\021?\232\231\305A\366(\334>\000\000\030\301\\\217B?\315\314\214@)\\\217=\000\000\036B\327\243p?ff\202A\327\2430?ff\306\300R\270\036?33\363@\354Q\270=\000\000\340\300\354Q8?\232\231AA\024\256\307>ff\016\301\n\327c?\315\314\214\300\366(\\?\232\231\231\300\000\000\200?\232\231\361A\303\365h?\232\231)A\366(\\?33\277A\270\036\005?33\023@\354Q\270=ff\352A{\024.>\232\231\271A\\\217\302>\315\314DA\n\327\243>\000\000`\300\256Ga?\232\231\031\277q=\n?\000\000\244A\217\302\365<\315\314L>)\\\217>\315\314\260A\270\036\205>33CA\n\327#<\232\231\031\277\244p=?33\353A\341z\224>33cA\n\327\243=\000\000\200\277\232\231\031>\232\231\231AH\341\372>ff\226@{\024n?ff>A\341z\024?\315\314\220A\217\302u>ff&\300\270\036\005>\232\231\351\300\303\365\250>\000\000\320\300\232\231\031?\000\000\254A\354Q8?\315\314TA)\\\217>\232\231\007BH\341z?33\363@ff\346>ff\016A\037\205+?\000\000\000B\315\314L>\315\314\014BR\270\236>\000\000\340A\037\205+?\000\0000Aq=\212>33\203\300ff&?\232\231\031?)\\\017?\315\314\014@H\341z?\232\231\021A\n\327\243>33\247A=\nW>ff\226A\315\314L?ff\026B\\\217\302>\315\314$A\270\036\005?ff\206A\315\314\314>33\023A)\\\017?33\033\301\327\2430?33\333A\256G\341=\000\000\000B=\n\027?\315\314\022B\270\036\005>\000\000\374A\024\256G?\232\231\001B\256Ga?\000\000\360@\024\256\007?\315\314\034B\244p}?\232\231)A\n\327c?ff\302A)\\\017?\000\000\300\277\000\000\200>ff\326\300q=\212>33\021B\205\353\321>ff\206\300\000\000\000\000ffFA\217\302u?\000\000\036B\000\000\000?\315\314\014Bq=\n?\232\2311A{\024\256>\232\231\221A\256Ga>\315\314\030B33\263>\000\000\020A\270\036\205>333?\270\036\205>\315\314\034A\244p}?\315\314L\276\244p}?\000\000\300A\037\205k>\315\314\214\277\354Q8>\000\000\260@)\\\217>33CA\217\302\365=\000\000@A\256G\341>fff?\341z\024?\232\231!A\327\2430?\000\000\350A\244p\275>\232\231\205A{\024\256>\232\231\251\300ff\346>ff\206@\\\217\002?\000\000\354A)\\\217>33\033B\000\000\000?\232\231\031\301\270\036\005>ff\000B\256Ga?\315\314,A\217\302\365>ff\262A\232\231\031?33\203\300\n\327#<\232\231\003B\000\000\000?\000\000\374A\327\243\360>33s@)\\\017?\315\314\350A\n\327\243>\232\231\001A\205\353\021?\232\231\241AH\341\372>\232\231\351@q=\n?\000\000\310A\037\205k?ff\336A\354Q\270=\315\314,@\341z\024?\315\314\034A\327\243p?\000\000\224A\n\327c?ff\272A\000\000\000\000ff\006@\205\353\021?ff\246\300fff?\315\314dA=\nW>\000\000\030\301=\n\027?\000\000\320A\366(\034?\232\231\371\300\\\217B>\232\231\001BR\270\036?ff\252A\205\353\321>33\237AR\270\236>33\203A=\n\027?\232\231\251\300\256Ga>ff\006\301\024\256\307>\000\000`AR\270\236>ff.A\232\231\031>\000\000\024B\315\314L=ff\036B)\\\017?\232\231\031?\000\000\000?33\353A\366(\\?\000\000\240@\037\205+?33\213A\232\231Y?\232\231\211A\037\205k>\315\314\314\276\000\000@?\315\314\334\300\000\000\000?33\333A\n\327#>ff\366A\024\256G?\315\314\230AH\341:?ff\256A\037\205k>ffVAR\270\236>\000\000\010B\341z\024?\315\314\334A\n\327#>33\353AR\270^?33\033A=\n\027?ff\036B{\024.?\000\000\320@33s?\232\231\345A)\\\017>\000\000\220A)\\O?\315\314\004\301\354Qx?\315\314\254Aff\346>\315\314\016Bq=\212>\232\231\037B\232\231\031?\315\314$Aq=\n?ff\312A\341zT?333@\\\217\002?\232\231\231\276\037\205+?\232\231\031B\\\217B>\232\231Y@q=\n?\232\231\003B\000\000@?ff\322A\217\302\365=ff\216A\303\365h?ff\352A\341zT?ff\236A\303\365h?\232\231\031A\037\205\353>fff\277\366(\\?\000\000@\300\256Ga>\315\314\234A333?\315\314tA\n\327#<33\333A\256G\341=\232\231\rB\366(\334>ff\272A\366(\334>\232\231\231\300R\270\236>ff\nB\315\314L?ff\006A\270\036\205>\232\231\305A\n\327\243<33\003\301ff\346>ff\366@)\\\217>33\217A=\nW?\232\231\t\301{\024.>\232\231Y\300\217\302u=\232\231\331@\315\314L=\000\0008A\327\2430?\315\314LA\037\205k>ff>A333?ffF@33s?33\203@\270\036E?ff\032BR\270\236>\232\231\275A\024\256\007?ff\306@R\270\236>ff\326@\232\231\031?\232\231y@\232\231\231>\315\314,@\256G\341>\232\231y\300)\\\217>fffAff&?\315\314\244A\217\302\365<ff\024B\315\314\314>\232\231\311@33s?33\223A\000\000\000?\315\314\334\300\327\2430?ff\002B\303\365(?ff&@R\270\236>\000\000\200\300\244p}?\000\000\036B\217\3025?ff\206\300\366(\\?\232\231\221A\n\327#=\232\231qA\\\217B>\000\000\020\301)\\\217>\315\314<A)\\\017>\315\314\214A\217\302\365=33\005B\217\302\365>\315\314\\A{\024.>\000\000`@\\\217B?ff\276A\244p\275>\315\314,AR\270^?\232\231\t\301)\\\017>\315\314\036B\232\231\231>ff\036A\000\000@?\000\000\000?\n\327#?33\243\300\\\217\002?ff\246Afff?\232\231\315A\n\327#?\315\314\334@\n\327#<ff\006B)\\O?33\263A{\024\256>ff\326@=\n\327>\315\314\024A{\024.>\232\231\tA\256Ga>333@\\\217B>\000\000\230AR\270^?\315\314\360A{\024.?33\033\301\\\217\002?fff@\217\302u?33\363\300)\\\217=\232\231y\300\024\256\307>\232\231Y\300\n\327c?\315\314\234A\303\365\250>\232\231aA\354Q8?33\005Bq=\212>\000\000\300\300\217\302u?ff6A=\nW?\232\231IA\037\205\353>\000\000\240AH\341z?\232\231\211AH\341\372>\000\000\344A{\024\256>\000\000\000\277\366(\034?\315\314\002BR\270\236>\232\231\021A\341z\024?\232\231\251\300q=\212>\315\314\254A\270\036\005?\315\314\320A\232\231Y?33\005B\205\353Q?33\243@\354Q8>\232\231\005B\\\217B>ff\346?\217\302\365<\000\0000Afff?33\363\300)\\\217=\000\000\250A)\\\017>33\003B\256G\341=33\263?\315\314L?33\267A)\\\017>\315\314L\276\037\205+?\000\000\220A33s?333@\n\327\243>333?\\\217B?\232\231aA\303\365(?ff\206@\341zT?fff\277\n\327\243>33\233AR\270\036?\232\231\355A\256G!?\315\314L?\244p}?\315\314\310A\037\205+?\232\231\351@\244p=?33\203\300\000\000\200>\000\000xA\205\353\021?\232\231\031\301=\nW>\315\314,@=\nW>\315\314\214@\217\302u?\232\231\023B\366(\\?33\313A\217\3025?\232\231\365A\217\3025?\000\000\304A=\n\327>ff\016\301\n\327\243>\000\000\010\301\256G\341>\000\000xA\256Ga>\000\000HA\n\327\243=\232\2319\300\256G\341>ff\266\300ff\346>\000\000 @\354Q8>ff\246\300\024\256\307>\000\000\240A\037\205\353>\232\231\331A\\\217\002?333@\327\2430?\000\000 @\244p=?\315\314\314\277\270\036E?\232\231\331?\270\036\005?\000\000\240@\244p}?ff\026\301\217\302u=ff&\300\315\314L>\000\000\032B\256G\341=\232\231)A\270\036\205>\315\314\234\300\\\217\302>ff~A\354Q8?\000\000\270A\n\327\243=\232\231\241A\217\302u>\315\314\214AR\270^?ff\346\277\366(\034?333@\341z\024?\315\314\214?{\024n?\315\314\274\300\205\353Q?\315\314\014@\217\302u>\315\314\026B\217\3025?\315\314\214?\244p=?\232\231\031B\232\231Y?33\031B\315\314\014?\000\000`Aq=\n?\315\314L\300\n\327c?ff\246\277\354Q\270>\232\231\255A)\\\017>\000\000\034B\270\036\205>\232\231\231\277\256Ga?\315\314\234@=\nW>33SA\366(\\?\232\231\251\300=\nW?\000\000pA\\\217B?\000\000\310AH\341:?\232\231\017B\000\000@?\232\231\331\300)\\\217>\232\231\017B\232\231\031?33\223AR\270^?33sA\315\314L=\000\000\200@\217\3025?ff\014B\303\365h?33+A333?\232\231aA\217\302\365>\000\000\020B\244p\275>\232\231\013B\303\365h?\315\314L\277=\nW>ff\366AH\341:?33\033B=\n\327>ff\266\300\315\314L>\232\231\371A=\nW?\232\231\331?H\341z?\315\314TA\354Q8>\232\231\275A\366(\034?33cA\256G\341=ff\376A\244p}?ff\226@)\\\217=33[A\315\314L>\315\314tA\n\327#>\000\000\004B\244p\275>33\227A\217\302u?ff\246@\354Q\270=\232\231\351\300\024\256G?\315\314\344A\315\314\314>\315\314,@\n\327c?\000\000\230A\n\327#>\000\000PA333?\000\000\036B\217\302u>\000\000\314A\354Q\270>\232\231\231A\205\353\321>ff\202A\354Q8?33\005Bq=\n?\232\231Y\300)\\\017?\232\231\341A\354Q8>ff\016A\354Q8>333\300\n\327#<\000\000\026B)\\\217=\232\231\305A\354Q8?\315\314\234\300\341z\224>\000\000 A\270\036\005>ff\026\301\205\353Q?\315\314,A\037\205+?\232\2319\300\n\327#?\232\231\031?\n\327#?33\357A\256Ga?33\263A\303\365\250>\232\231AAff\346>\232\231\tA\232\231\031>\000\000\274A\037\205k>\232\231\311@ff\346>\315\314tA\217\302u?ff\266A\037\205k?33\323@\244p}?\000\000\024B\n\327\243=\315\314l@\327\2430?\232\231\331\300\327\243\360>33\023\300\354Qx?\000\000\000\200\205\353\321>33\273A\341zT?\315\314\300A\244p=?\232\231\013B\\\217B?33KA)\\\217=\315\314\374A\327\2430?33\243@\270\036\205>ff\362A\354Q\270>\315\314\234\300\n\327#<\315\314\214@R\270\036?\232\231\331\300{\024.>\232\231\311\300\270\036\005?\000\000\374A\256G\341=\000\000\320@\n\327\243<ff\206A\205\353\021?33S@\256G!?333\277\\\217B?\315\314lA{\024\256>\232\231\005B\354Q8>ff\326A{\024\256>\315\314\234\300\232\231\031>\000\000\300A{\024\256>\000\000\360A\n\327#=33\263?\217\302u?33\023@\232\231\031?\315\314\004\301\327\243p?fff\300\354Q8?33\223@33s?\000\000\224A\205\353Q?ff\036\301\n\327\243<\315\314\314\276ff&?ff\206@\024\256\007?ff\312A\341z\024?\232\231\305A\270\036\005>\000\000\000\277=\n\327>ff\226A\205\353\021?\232\231\001Bff&?\232\231\331@\024\256\007?33+A\037\205+?33\363?R\270\036?\232\231\311@\217\302\365>ff\222A\n\327#>ff\016B\244p\275>ff\342A=\n\327>\315\314\030B\366(\\?\315\314\370Afff?\315\314<A\n\327\243=\232\231\031@H\341\372>\000\000\360AR\270\236>\232\231\031A)\\\017?33\253A)\\\017>\315\314\034\301\n\327\243<33\277A\256Ga>33#A\217\302\365<33\277A)\\\017>\232\231\251\300\205\353\021?\315\314\264A=\nW?33\031B\205\353\021?\232\231\251A)\\O?33sA\037\205\353>\000\000\240\300H\341z?33;A\354Q8>33\003A\327\243p?33\031B\217\302\365<\315\314L>\024\256\007?\000\000\000\300\270\036E?33\307A=\nW?33\223@\217\302\365=\000\000\364A\\\217\002?\000\000\360\300H\341z?ff>A\354Q8>\000\000\324Aff\346>ff\206@\232\231\031>ff\nBR\270\036?33\377A\217\302u?33\223A\n\327\243<ff~A=\n\327>\315\314\004Bq=\n?\232\231\231>\205\353\321>\000\000\320\300\205\353\321>\232\231\331@)\\\017?\232\231\001A)\\\017?33\343\300\354Q8?ff\366\300\024\256G?\315\314\374@ff\346>\000\000\032B\205\353Q?\315\314\022B\315\314\314>\315\314<A\315\314L=\000\000\010B33\263>33\033B)\\\217=fff\277=\nW>\000\000\254A)\\\017>33s\300\n\327\243>\315\314\320A\217\302u=\000\000\334A\n\327\243=33\337A{\024.?\315\314\234A\315\314L?ff\030B\354Q\270=\232\231\251A\354Q\270=ff\246\300\315\314\014?33\tB\244p=?\000\000\330A\037\205k?\315\314\314\300\217\302\365=ff\034B{\024.>\315\314\254\300H\341z?ff\346\277)\\\217=\000\000\016B\000\000\000\000\232\231\341A=\n\027?33\023\301\217\302u>\000\000`@\037\205\353>\315\314\314=\n\327#>\232\231\221Aq=\n?\232\231yA\232\231\231>\315\314\330A\354Q8?fffA\244p}?\315\314\314?\024\256\007?ff\326@\315\314L>ffNA\\\217\002?33\237A\217\302u?\232\231\351\300\\\217B>\000\000\364A\024\256G?\232\231\031\300\341z\024?\000\000\340\300\256Ga>\000\000\264A)\\\217>\232\231\245A=\nW?\315\314\314>\354Q\270>\232\231\023B\256Ga?ff\036\301H\341:?33\367A\315\314\014?\000\000XA\217\302u>ff\346\300\303\365(?33\257A\354Q8>ff\236A\315\314\314>\000\000\330A\\\217\002?33\037B=\nW>33\363\300333?33\263\277\217\3025?33\223\300{\024n?\315\314\334@=\n\027?\000\000PA\205\353Q?\315\314\330AH\341:?\232\231aA\037\205k>ff\246\300\232\231\231>\315\314\314={\024n?\232\231\t\301\\\217\002?ffF\300\270\036E?\000\000 \300=\n\327>33\037B\217\302u=ff\232A\256G\341=\232\231)A\315\314\314>\315\314\024\301=\nW>33\303A\303\365\250>\232\231\341AR\270\236>ff\266@\024\256G?\232\2319@\244p\275>\315\314\314\300=\nW>\000\000\020B{\024n?\315\314\200A\037\205\353>\000\000\264AR\270\236>\315\314\210A{\024n?\232\231\027B\270\036E?ff\226A\217\302u=ffF\300{\024\256>ff&A\\\217B>\315\314\320A{\024.>33\363\277R\270\036?\315\314\274A\\\217\302>ff\026B\037\205\353>\000\000\340\300\354Q\270>33\277A\354Q8?\232\231)A\315\314\314>\232\231\013B\303\365\250>ff\246@)\\O?ff\212A\303\365\250>\315\314\344A\n\327c?fff\277\024\256\007?33\263\300\303\365(?\232\231\365A\270\036\005>33\rB\232\231\031?ff\246@\315\314L>33\023\300\232\231\231>\232\231\021\301\205\353\321>\232\231\311@\366(\334>33\277A\256Ga>\315\314\314A\315\314\314=\232\231\351A\256Ga>333\277\n\327\243<33\023BH\341\372>ff6A\315\314L=\232\231\365Aff&?\315\3144A)\\\217=ff\276A\n\327\243>ff\226\300\037\205k?\232\231\021B\217\302u>ff\034B\244p}?\315\314\004A\327\2430?\000\000\220\300\000\000\200>ff\256A)\\\217>\315\314\314\276\024\256\007?\232\231\315A\366(\\?33\363\300H\341:?\232\231YA\217\302\365>33\rB\315\314\314>ff\332A{\024.?33\003\301\315\314L>\232\231\225A\354Qx?\315\314\314\300\024\256\307>33\263A\303\365\250>33\343A\217\302u=ff\332A\217\302\365<\000\000\210A33\263>ff\312A\303\365h?33\233A\354Qx?\000\000\030A\232\231\031?\232\231\255A\\\217\002?\232\231aA\217\3025?33\263\300)\\\217=ff\236A\205\353\021?33CA\270\036E?ff\336Aq=J?\232\2319@\244p\275>\315\314\016B\n\327#=33\203@)\\\217>\232\231\331?{\024\256>\315\314\374\300{\024\256>\000\000\314A\037\205+?\232\231\tA333?ff\336A{\024.>\315\314\334A\n\327\243<33\237A\354Qx?\232\231\215A\270\036E?\315\314l\300R\270\236>\315\314\014A\303\365h?ff\006BR\270\236>\000\000 \300)\\\017>\000\000hA\037\205k>\232\231\371A\315\314\314=\315\314\310AR\270^?\232\231YA\327\243\360>\315\314,@\327\243p?33S\300\327\243\360>\315\314\004B\315\314L=\000\000\340A\341zT?\232\231\005B=\nW?\315\314\234A\256G\341=\315\314\010B\217\302u>\232\231QA\000\000\200>\232\231qA\217\302u?\000\000\200\277\n\327#=ff\222A\315\314\014?\232\231\321A\315\314\014?\000\000\260@\232\231Y?33\tBH\341\372>33\223A33s?ff\346A\244p=?ff\302Aq=J?\000\000\200?\256Ga?33\223A\n\327c?\232\231\231A\205\353\321>\000\000\000Bq=\n?33\367A\232\231\031>\000\000hA\244p}?ff\362Aff\346>\232\231\351@\327\2430?ff\266@\037\205k?33S\300ff\346>\315\314l\300\232\231\031?\000\000\354A\n\327#>\000\000@@R\270\236>\315\314\340A\244p}?ffF@\n\327#?ff\036A\315\314\314=33\013\301=\nW>\315\314\026B\315\314\314>\000\000@\300\\\217\002?\000\000\214Aq=J?\232\231\037B{\024.?\232\231\331A\000\000\200>\000\000\010B\n\327\243<ff\326\300ff\346>\315\314\314=\315\314L?33\213Aff\346>\232\231y\300ff&?\000\000\024B\315\314\014?\315\314\200A\366(\034?33\357A\037\205k?\315\314\234@\205\353\021?\315\314\004\301H\341:?ff\026B)\\\217>\315\314\314\276\256Ga?ff\036A\354Q\270>\000\000xA\000\000\200>fff\30033\263>33\327A\217\3025?\000\000\240\300\\\217\302>\232\231\031\300\256G\341>\000\0000AR\270\036?\000\000\374Aq=\n?\000\000\030B{\024.?\232\231yA\232\231\231>ff\206@\217\302\365<333A\232\231\031?\315\314\314?ff\346>ff\352A)\\\217=33\207A\217\302u>\315\314\254A\366(\334>\232\231\231@\037\205k>ff\206A\000\000\200>\000\000@\300\217\302u>\000\000\334A\n\327\243=\315\314,@\256G!?33\243A\256G\341=\315\314\014B\000\000@?ff\306\300\n\327#<\000\000hA\315\314L=\232\231\325A\366(\\?\315\314\314=\341zT?\232\2311A\n\327#>ffVA\270\036\205>\000\000\370A)\\\017?\315\314\314>\244p=?\315\314\344A\037\205+?\315\314L\276\037\205+?\000\000@A\315\314\314=\232\231QA\\\217B>ff\246@\327\243p?\000\000\000\000\256Ga>\315\314\024\301\341z\024?\315\314\016B\270\036\205>33\033A{\024.?\315\314L\277=\n\027?33s\300{\024.?\232\231\251\300\354Q8>\315\314l\300\303\365\250>\232\231\035B\\\217\302>\232\231\315A{\024n?33\263\277\037\205\353>\315\314<A\256G\341>\232\231\331@\366(\334>\000\000HA\244p=?33;A=\nW?\315\314\314\276\244p}?\232\231!A\366(\\?\232\231\325A\315\314\014?33\213A\366(\034?\232\231\231A\256G\341=\315\314\014@=\nW?\232\231\001B\024\256\007?\232\231\211A\\\217B?\232\231\211@\327\243\360>\232\231\355A)\\\017?\000\000\034B\217\302u>\232\231\rB\217\302\365<33\031B\341z\024?\000\000\224A\256Ga?\315\314\334Aff\346>\315\314\330A\354Q\270>ff\206\300333?\000\000\240Aq=J?\315\314L>33\263>\315\314\314A\244p}?\000\000\020\301\037\205\353>\232\231\013B)\\\217=\000\000 @\354Qx?\232\231aA\341z\224>33\237A\303\365(?33SAR\270^?ff&\300\354Q\270>33\203@\341zT?ff&A\270\036\205>\315\314\014\300\354Q\270>\232\231\245A\n\327#<ff\016A\000\000\200?\232\231\tBR\270\236>33\303@\270\036E?\000\000(Aff&?\000\000\016B\n\327\243>\315\314\034B\232\231\231>ff\216A\232\231Y?\232\231\005B=\n\327>33\213Aq=\n?\000\000\004B\270\036E?\232\231y@ff\346>\000\000\010A\n\327\243=333\277\244p}?ff\026B=\n\327>ff\246?\217\302\365=\315\314\230A\000\000@?33\025B)\\O?\315\314\324AH\341z?\232\231\311\300=\n\327>\315\314\374\300\217\3025?\000\000\000BR\270\036?\232\231\261AH\341:?\232\231\251A\\\217B?\315\314\350A\256Ga?33\213AH\341z?33\203A\256G\341=ff\226@\037\205k?\315\314\344A\037\205k>\315\314\324A\217\3025?33\253A\303\365h?\232\231\251A\366(\034?\232\231\351A\354Qx?33cA)\\\017>33[A\270\036\005?33\263A\000\000\200>\000\000\030B\354Q8?\232\231\t\301R\270\236>\232\231\305AH\341z?33\023@H\341\372>\315\314\006B\205\353\321>\232\231\311@\037\205k?\232\231\003B\232\231Y?ff\376A\037\205+?\315\314\004A\270\036\005>\232\2319A\341z\224>ff\242A\256Ga?\315\314\314?\024\256G?\315\314\234@=\n\327>33\025B\341z\224>33\367A=\nW>33\207A{\024.?\000\000\244A\327\243p?33\303A\244p=?fff?R\270^?\000\000\300?\232\231\031?\232\231\371A=\n\327>ff&\300\366(\334>\315\314\370A33\263>ff\266\300\341z\024?ff\026B\000\000\000?\232\231\tB\354Q8?\232\231\017B\270\036\205>\000\000\nB\n\327#>\232\231\211AR\270\036?\232\231\031\301\303\365h?\315\314\036B\217\3025?\000\000\320\300\217\302\365=\315\314\354@\232\231\031?\315\314\\A\n\327#?\232\231\241A\217\302\365>33\263\300\217\302u>33\007B\\\217B?\315\314,A\n\327\243>ff\022B\n\327#?\315\314\014@\217\302\365>\000\000\000@\315\314\314>\315\314\344A{\024.?ffF\300\n\327c?\232\231\021\301\205\353\321>33\023\301\256G\341>\232\231\231@\n\327#=\232\231\005B\\\217\302>ff.A333?\232\231\231\277{\024.?33\363\300\217\302\365<\232\231\311@\000\000\000\000\315\314$A\\\217\302>ff\036A\366(\334>\000\000\240AH\341:?\315\314\014A\000\000@?33\021B\n\327\243=\232\231\021B\366(\034?ff\306@\\\217B>33\023A\205\353\321>ffNA33s?ff\216A\256G\341=ff\222Aff&?\232\231\033B\341zT?\000\000\234A\000\000@?ff\nB=\nW?\315\314L@\205\353\021?\000\000\260\300\n\327\243=\232\231\231@\303\365h?\000\000\370A\244p=?33\023\301{\024.>\000\000\010\301\256Ga>\000\000\360@\315\314\014?\232\231\033B\\\217\002?\000\000\024B\\\217B?\000\000\030B{\024.>\315\314L@)\\\017?\000\000@@\000\000\200>33\021B\315\314L=ff>A\315\314\314>\000\000\300\277\232\231\031>\000\000\030\301R\270\236>33\257A\000\000\200>\232\231y@\270\036\005>\000\000\360\300\\\217B>33\007B\327\243p?\000\000\240A\000\000\000?\232\2319@33s?\000\000\364A\205\353Q?\315\314,\300\244p\275>\315\314\210A\205\353\021?\000\000\032B\315\314L?ff\356A33s?33\263\277\315\314\314=\315\314\314\275\327\2430?\315\314\014A\270\036\005>33+AR\270\036?\232\2311A\270\036\205>ff\366A)\\\017>\000\000@A\024\256G?\315\314\254\300\n\327\243=\315\314L\276H\341\372>\315\314\334\300\341z\224>\000\000\234A\270\036\005?\232\231\305A)\\\017?\315\314\224A\354Q\270=33\263A\315\314L>\232\231\265A{\024.?\315\314\016B\232\231\031>ff\346\277\232\231Y?\000\000\360@q=\n?ff\232A\217\302\365>\000\000\350A\315\314\314>\000\000\000\30033\263>\000\000\030B\n\327#=\000\000\214A\217\302\365<ff\206\300\205\353Q?\000\000\210A\024\256\307>\000\000@@=\n\327>ff\346\277\037\205k?33\253A\232\231\031>\315\314\344A\n\327#>33\023@\256G!?ff&@\232\231Y?\315\314,@\244p=?ff\376A\024\256\307>ff\032BH\341:?33#A\217\3025?ff\306@\037\205k>\232\231\331\277\037\205k?\232\231\245A\n\327\243>ff\232A\303\365\250>ff\026A\n\327#>ff\024B\037\205\353>ff\006@)\\\017?\000\000\004B\205\353\321>\232\231\331?\315\314\014?\232\231\021A\303\365\250>33\243@\256G!?\315\314\354\300\000\000\200>\000\000\264A33s?33\343A\270\036E?\000\000\010B\217\302\365>\000\000\000B\366(\034?\232\231\265A)\\\217>\315\314\274\300\217\3025?\315\314\274\300\217\302u?ff\342A\037\205+?ff\222A\315\314L?33\243@\217\302u>\000\000\022B\354Q8>\000\000\300A)\\O?\315\314\334@\\\217\302>33\263?\217\3025?\232\231\331?\\\217B>\000\000\002B\270\036\005>\315\314\314@\217\302u=\315\314,A\037\205+?33\337A\n\327\243<\315\314\374A\024\256\007?33\003\301\256G!?\315\314\260A\217\3025?\000\000\240A\024\256G?\000\000\000B\037\205k?\000\000\300@\354Qx?\315\314\254A\256G!?\315\314\014\301\270\036\005?ff\266\300)\\\217>ff\006A\037\205+?\000\000\002BR\270\236>\000\000 @\\\217\302>\000\000\320\300)\\O?ff^A\037\205+?ff\020B\315\314\314>\315\314LA{\024.?\315\314\014A\000\000\200>33\243\300\\\217B>\000\000\210AH\341\372>\232\231\tB\354Q8?ff\362A\232\231\031?ff\006@\256Ga>\232\231\021A\037\205k?\000\000`A=\nW>\232\231\331@H\341:?\315\314\314\300\n\327\243=\000\000\360AR\270\236>33\023BR\270\036?33\373AR\270\036?\000\000`@\024\256\007?\000\000\214Afff?33\263?\217\302\365<ff\366\300\\\217\002?33\263@\327\243\360>\315\314\250Aff\346>\000\000\334A\024\256\007?33\347A\270\036E?\232\231iA\341zT?\232\231\241A=\n\027?\000\000\234A{\024.?\000\000\214A\\\217B?\315\314\310A33s?\232\231QA\303\365\250>\000\000\244A)\\\017?\000\000\020\301\270\036\005?\000\000\300?\341z\224>ff\242A\\\217B?33\023@\315\314\314>\232\231\215A\232\231\031>\315\314DA{\024\256>ff&A\354Q8>ffvAR\270\036?33\263@\024\256G?ff\006B\024\256\007?33\003A\217\302\365<ff\216A\000\000\000?\000\000\000AH\341:?ff\256A\037\205k?\315\314\204A\n\327#?\000\000@@\244p}?33\357A\205\353Q?ff\246?\217\302\365<\232\231\225A\232\231\231>33\343\300\024\256G?ffF\300\354Q\270=fff\277\232\231\231>\315\314\034A\000\000@?ff\372A\244p=?33\263\277\024\256G?\232\231\017BH\341z?\232\231\255A\205\353\021?\232\231\305A\\\217B?\000\000\320\300R\270\236>\315\314l\300\270\036\205>33\323@\327\243\360>\000\000 A\303\365h?\315\314\214A\232\231\031?\315\314tA\n\327#?\000\000\030A\n\327#>33\363\277\315\314\014?ff\262A\341z\224>\315\314\214\277\315\314\014?33\313A\n\327#=\315\314L@\n\327#?\315\314\274\300\341z\024?33\263\277\205\353Q?\000\000\000@\327\2430?ff\034B\024\256\007?\232\231AA\024\256\007?\000\000\330A\n\327c?\232\231\361A\256G!?\000\000\274A\270\036\205>\315\314tA\n\327#?\232\231\271@\315\314L=ff\336Afff?\315\314\230A\354Q\270=\000\000\270A\303\365\250>\315\314\334\300\217\302u>\315\314TA)\\\217>\000\000\200\300\270\036E?ff\206AH\341z?\000\000@A)\\\017?ff\362A\205\353Q?\315\314tA\217\3025?\232\231\037B\217\302u>ff\326A\366(\\?33[A\037\205k>\315\314\004\301\037\205\353>\000\0000A{\024\256>\232\231\005B\\\217B?33+A\232\231Y?\315\314,@\232\231\031?ff\022B\256Ga>33\313A\354Q\270=\000\000\350A)\\\017?\000\000\020\301H\341\372>\000\000\000B\303\365\250>ff\366A\341zT?\315\314\020B\341zT?\000\000\340@\303\365(?\232\231yA\366(\334>\000\000\260@\037\205\353>33\323\300\205\353\321>\000\000\200A333?\232\231\355A\244p}?ff\352A{\024n?\232\231\021A\341zT?ff\000B\037\205k>33\023\301q=\n?33\353A\256G\341>\000\000\300\300=\n\027?\315\314,@)\\\217>\315\314\334A\n\327\243=\232\231\321A\327\243\360>ff\312A\315\314L?\315\314DAR\270^?33\363A\303\365h?33\357AR\270\036?\000\000\036B\205\353\021?\232\231\351\300\256G\341=\232\231\305A333?33\037B\000\000\200?ff\014B\024\256G?\315\314\002B\341zT?\315\314\314?\232\231\031?ff\nB\232\231\031>ff\342AR\270\236>\315\314\\A)\\\017>\232\231\215A\244p\275>33\017B\n\327c?\000\000\300A{\024n?33\373A\315\314\314=\000\000\200A\303\365h?33\223\300fff?33SA\\\217B>\000\000hA\217\302u?\000\000@A\n\327#<33\013A\256G\341=33\343A\\\217\302>33\003B=\nW?\315\314\230A\354Qx?\315\314\032B\217\302u=\000\000\300\300\315\314\014?\000\000@@\205\353\021?33SA)\\\017>ff\212A\000\000\000?\232\231\261A\341zT?\232\231aA{\024.>\000\000\240\300)\\\217>\000\000\340@\244p\275>33\337A333?\232\231\371\300\256Ga?\232\231\211\300\315\314L=\000\000\344A{\024.?\232\231\225A\315\314\314>ff\332A{\024\256>ff.A{\024n?333\277\217\302\365<\315\314\000B\n\327\243<ff\346\277\024\256\307>\232\231\211\300\270\036\005?\232\231\021A\303\365h?\000\000`\300H\341:?\232\231\331@R\270\036?\232\231\341A\303\365\250>\000\000\204A\354Q8?\315\314\nB\303\365\250>\000\000\000\300H\341z?\232\231\205A{\024n?\232\231\tA\256Ga>\315\314\024B\327\243p?\000\000\210A\n\327c?ff\346\277\n\327\243>ff\266\300{\024.>\315\314\034\301\\\217\002?33\023A)\\\017>\315\314\304AH\341:?\000\000\020A333?\232\2319A\217\3025?\000\000\334A\217\302\365>33+A\205\353\021?33\357A\354Q\270=\315\314\234@\270\036\005>\315\314\254@\232\231Y?\315\314\234\300\205\353\021?\315\314\334A\217\302u?\315\314l\300\217\302\365>\000\000\360\300\354Qx?ff\262A\270\036E?\232\231\255A\n\327#>ff\006\301\205\353Q?ff^A=\n\027?33#A\232\231\231>ffF\300\366(\034?\000\000\020B\n\327#>ff\356A\217\302u=ff\206A\303\365h?\315\314\334\300\354Q\270>ff\246A\315\314\314>\232\231AA\037\205k>\232\231\231>)\\\017?ff\266\300=\n\027?\315\314\214\300\000\000\200>\232\231\245A\000\000\200?\000\000\016B\354Q\270=\000\000\374A\n\327#?\000\000\240@\303\365\250>\000\000\300@q=J?\315\314\314@\n\327#>ff\276AH\341\372>\232\231IA\024\256\307>33\005B\366(\034?33\203@H\341\372>33\263?\244p\275>\000\000\220@\n\327#>\000\000\344A\270\036\005?\315\314\350A=\n\327>ff\242A\256G\341>\232\231\031@\n\327\243=\315\314\274\300ff&?33\037B\327\243\360>33s@R\270^?\000\000\024B=\nW>ff\366@)\\\017>\315\314\314=\315\314L=ff\376A\366(\334>33\013\301\256G!?\315\314\004B333?33[A\327\243\360>ff\256Aq=\212>ff.AR\270\236>\000\000\310A\037\205+?33\213A{\024n?\000\000\nB\\\217\002?\000\000@\300H\341\372>\232\231Y\300\366(\\?\232\231\231\276\n\327#=\232\231\001A\217\302u?33\323A\244p=?\000\000\240@H\341:?\232\2319A33\263>\232\231\351A\n\327c?\232\231\241A\303\365\250>\315\314\014\300\341z\224>33\263A\037\205+?\315\314\034B\217\302\365<\000\000\020\301\354Q\270=ff\306@\327\243p?\232\231\231?\000\000\200?33\003\301\327\2430?ff\030B=\n\327>\000\000\200?H\341\372>ff\306\300\232\231\031?\315\314lA\024\256\007?fff?\\\217\002?\000\000\334A\303\365(?\315\314\264A\000\000\000\00033\223@H\341z?ff\366A\303\365(?ffFA\217\302u>ff>A\217\302u=ff\262A\n\327c?\232\231\245A\256G\341>ff\026\301\024\256G?33\023BH\341\372>ff\022B\354Qx?\315\314\334\300\303\365(?\232\231)A)\\\017?\000\000hA\024\256\007?\315\314\200A\366(\334>ff\326\300\\\217B?33\223AR\270\236>ff\016B\037\205+?\232\231\371@\232\231\231>\000\000\250A\315\314\014?ff\262AR\270\036?ff\020B\232\231\031>\315\314\314=\354Q\270=33\217A\354Q8>fff@)\\\217=ff\006\300\000\000\200>ff\366@\037\205+?\315\314lA\024\256G?ff\376A333?\000\000\344A\327\243p?ff\306\300H\341z?\232\231\035B\341zT?333@\217\302u>\000\000\340A\217\302\365>33\343@\205\353\321>\232\231\021\301\217\302\365>\000\000\000Bq=\212>\000\000\004B\024\256G?\232\2319A\217\302\365>ff\362A\000\000@?\315\314,@\217\302u>33\253A\366(\334>\000\000\nB\341z\224>\000\0000A{\024\256>\315\314\024\301\303\365(?\315\314\314\277\327\2430?\315\314\374\300333?\232\231\355A\205\353\321>33\267A\270\036\005?\232\231IA)\\\217=ff\026A\n\327c?\232\231\021\301\354Q8?\315\314\214\277\037\205\353>33\263?q=\n?\000\0000A{\024\256>\000\000(A)\\\217=\232\231\021B\354Q\270>\232\231\325A\205\353\021?\315\314\024\301)\\\217>fff\300\232\231\031?ff\246\300H\341\372>\000\000\006B\366(\034?33kA)\\\017?fff@\205\353\021?ff\246\277\303\365(?ff~A\315\314\314=33\363A\244p=?ff\246\30033\263>\232\231\311AH\341z?\000\000\340@\315\314\314=ff\026B\256Ga?\315\314\214\300\217\302u?ffVA\315\314L?\315\314\014\300\256G!?\000\000\200A)\\\217=\315\314l@\303\365(?\232\231\021B=\nW>\000\000\000\300q=J?\000\000HA\244p=?\315\314\200A\\\217B>ff\246A\341zT?\232\231\311@\232\231\031>ff\366A\327\243\360>\232\231\007B\037\205k>33\023@\000\000\000?33\035B\n\327\243>\315\314\234@\037\205+?\315\314\250A\303\365(?ff\306A\000\000\200>\000\000\214A\327\2430?\315\314\004\301\000\000\000?\315\314\014\301\000\000\200?33\rB\366(\034?\232\231\231?\232\231Y?ff\246@\341z\024?ff\006@\315\314\314=\315\314\030B\244p=?\232\231\301A\217\302\365=ff\246?)\\\217=33\377A=\n\327>ff\014B\315\314\314>ff\316A\270\036E?33\rBq=\212>33\023A\315\314\314=\000\000\270AR\270\236>\232\2319A\354Q\270>ff\256A\354Q\270>\000\000\260@\327\243p?33\223@\354Q\270>\000\000\354A\000\000\000?\000\000\010Bff\346>33\273A\327\243p?\315\314\234A\217\302u?333\277\000\000@?ff\246A)\\\017>ff\006@\\\217B>\232\231\tA\366(\\?\315\314\254A)\\\217=ff\006A\217\3025?\000\000\nB\217\302u=\315\314\000B\244p=?ff\010B\n\327#<\315\314\320AH\341:?\000\000\250A\217\302\365>\315\314\016B\315\314\014?\315\314\270A)\\\217>\232\231\231A33s?ff\222A\232\231\031>33\317A\n\327\243>33S@\232\231\031?33\343A)\\\217>ff>A\366(\334>ff\212A\037\205k>\000\000(A\217\302u>\000\000\260\300\303\365h?ff\024Bfff?33\323A\256G!?\000\000\004BH\341\372>\000\000\224A\270\036\005>\315\314\314A)\\\217=\232\231\271\300\000\000@?ff\226\300\217\302\365=\000\000\364A\037\205k>\315\314\026B\n\327#?ff\226\300\270\036\005>\232\231\231?\000\000@?\000\000\244A\327\243p?\000\000HA\\\217\002?33\303\300{\024n?\315\314\250A\232\231\231>33\023@\327\2430?\000\000\020\301\024\256G?\232\231aA\341z\024?\000\000\300\277H\341:?\000\000\240@\232\231Y?\315\314\334@\303\365\250>\000\000(A\270\036\005?33\025B\270\036E?33\223@\315\314L>\315\314\004B\341zT?\000\000\210A\037\205k?\232\231!Aq=\212>\232\231\007B\366(\\?\000\000\324A\037\205k?ff\206@33s?ff\302A\315\314L>\315\314l\300=\n\327>\315\314$AH\341\372>\232\231\t\301\270\036E?33\343\300\315\314\314>ff\010B\\\217\302>\315\314\314=\217\302u=\315\314\004\301\244p}?\000\000\014B\\\217B>ff\006A\232\231\231>ff\206Aff&?\232\231\021Bq=\212>33\347A\341zT?\315\314\006B\000\000\000?\232\231\021B\n\327\243=\000\000\032B{\024.>33;A\354Q8>ffnA\217\302u?33#A\217\302u>\000\000\234A33s?33\263@\n\327#?\000\000xA\256G!?ffF\300\232\231\231>\232\231\031?\366(\\?\232\231\031B\024\256\007?\315\314\274A\270\036\005>33\323\300\n\327\243=ff&@\n\327\243>\315\314\214@ff&?\315\314\024\301\232\231\231>ff\006\300\217\302\365=\315\314\014@\232\231\031>\000\000\220A\244p\275>\232\231\331A\\\217\302>ff\024B\217\302u>\315\314\034B)\\O?ff\326\300\256G\341>\000\000\300@q=J?\232\231\231\277\315\314L=\232\231\331\300\\\217B>ff&@\315\314L?ffvA\232\231\031?\315\314\334@\n\327c?33sA\n\327#=\315\314lA\205\353\021?\232\231\001B\315\314\314>ff\026\301=\n\327>\232\231\001\301\217\3025?\000\000\374A\205\353\321>\232\231\275AR\270\236>\232\231\231\277\354Q\270>\232\231\211\300\256Ga>\315\314\314\300\256G\341>\232\231\331\277\037\205k?ff\206\300\\\217B?\000\000\220@33s?\232\231\375A333?\232\231\031\277\n\327\243>\232\231\231?H\341:?ff\004B\205\353\321>33\343A\354Q\270=\000\000@A=\n\027?\315\314\334A)\\\217>\315\314\304A\366(\034?33S@\256G\341=\000\000\010B\024\256\007?\315\314\274\300\354Q\270=\000\000\200\300\327\243p?33\013B\354Q\270>\315\314\234@\\\217\302>\315\314\364A\256Ga>\000\0008AH\341\372>ff\346\277H\341:?\000\000\020\301\037\205k?33\277A\327\243\360>\232\231\031B\024\256\307>\000\000\022B\341z\224>ffnA\315\314L>33\247Aff&?\000\000\210AR\270\036?33\217A\037\205\353>\232\231\331A\000\000@?33\023\301\n\327\243=\232\231\361A\244p\275>\315\314\214\277\024\256G?\000\000\006B\327\243\360>\000\000\360A\217\302u=\315\314\320A33s?\000\000 \300\366(\034?ff\266@\366(\\?\000\000\020\301\270\036\005?\000\000\260A\232\231Y?\000\000\330A\n\327\243>ff\202A)\\\017?ff&@\354Q\270=33#A\270\036E?333\300\354Q8>\000\000`A\315\314\314>\315\314\314?{\024\256>\000\000\004B\000\000@?\232\231\351\300\270\036\205>33s@=\nW?\000\000\220\300\000\000\000?\000\000\020\301\000\000@?ff\006B{\024.?33\343\300{\024n?33\023Bff\346>33\263\300q=J?\232\231\331AH\341:?\000\000\374A\354Q8>\232\231\315A\232\231Y?33\263\277\327\2430?\315\314L\300\256G\341>\232\231\017B\n\327c?33\001B\205\353\021?333\300{\024.?ff\036B\270\036E?\232\231\031@\354Qx?33cA\270\036E?\000\000\340A\303\365h?\000\000\000\300H\341:?33\317A\315\314\314>ff\326\300\354Q\270>ff\004B\244p}?\232\231\271\300R\270\036?\315\314\314>=\n\327>\000\000\260@{\024.>\315\314DA\024\256\007?ff&@=\nW?33#A\303\365(?\232\231\031A\366(\\?\315\314TA\341z\224>\315\314\200A\217\302\365>\315\314\234\300\256Ga?\232\231QA\256G\341>\315\314\334A\256G\341>ff>A)\\\217>\315\314\354@\037\205k>\232\231\231A=\nW?\000\000\300?H\341\372>\232\231\371A\315\314\314=\232\231\275A{\024.>\000\000\264A=\nW>\315\314\274@)\\\017>333\300\024\256G?33\267A)\\\017>\000\000\014B)\\\217>\232\231\311@R\270\236>\232\231\251A\\\217B?\000\000\000BR\270^?33S@\217\302\365>ff\366@\244p\275>ff\036\301\232\231\031?33\243@\270\036\205>\315\314\214@\315\314L?33\353Aq=\212>ff\372A\217\302\365<33\323\300\232\231\231>ff\246\277\354Q\270>\000\000(A{\024.>\232\231\325A=\n\027?ff\006\300\232\231Y?\232\231\371\300\354Q8>\232\231\271@\354Q8>\232\231\255Afff?\315\314\314\275\\\217\302>ff\026A\205\353\321>\232\231\031@\037\205\353>33\263?\327\2430?\232\231\031\277\205\353\321>33\223A\217\3025?ff&@\315\314\014?\232\231\331@\217\302\365=\315\314\014\300H\341\372>ff\276A\037\205k>\000\000\214A\270\036\205>ff\242AR\270^?33\263\277\\\217\002?\315\314\006B\000\000\000\000\000\000\340@\024\256G?33\223\300\256G\341=33S@\037\205k>\315\314\314@\037\205+?\000\000PAR\270^?33\263\300\315\314L?\232\231\351\300\217\302u?\000\000\220Aff&?ff~A)\\O?\000\000\240@\n\327\243>33\001Bff&?\232\231\t\301\256G!?33S\300\315\314L=\315\314\210A\n\327c?33\333A\\\217B>\232\231\211@\024\256\307>\000\000\254A\327\243\360>33\343A\n\327#>\000\000\200\300{\024.>\315\314|AH\341z?\000\000\300A\244p\275>\000\000\016B\256G\341>\315\314\274@\037\205+?ff\342A\366(\\?\232\231\355A\244p=?ff^A\205\353\021?33\023B\270\036\205>ff\366A\217\302u=\232\231\205A{\024n?\315\314\230Afff?\315\314,\300\354Q\270=\000\000\010A{\024.>\315\314,\300\000\000\000\000ff&@\217\302u>\232\231\211@\205\353Q?\315\314\024A\n\327#=\232\231\021B\327\243\360>\232\231\371A)\\\017>33\243A\270\036\005>\000\000\340\300\303\365h?33\343\300=\nW?\315\314\\A\232\231\031?\315\314|A\n\327\243>33s\300\000\000\000?\232\231\201A\354Q\270=\000\000\200\277{\024.?\000\000\200?\354Q\270=\232\231\375A)\\\217>fff\277\024\256\307>ff\326\300\n\327\243>\232\231aA\232\231\031>33\227A\244p}?33\003Bq=\212>33\363A333?\315\314tA=\nW>\232\2319@ff&?\232\231\003B\315\314L?\000\000\030B\024\256\307>33\223@\n\327\243<fff\300\327\243\360>\232\231y@\244p=?ffFA\315\314L=\000\000@@\244p=?33\237A=\n\327>\232\231\001A\270\036\205>\232\231\245A\366(\334>33kA\303\365h?33\267A\232\231Y?\315\314\340A=\nW>33\263\277\256Ga>\315\314\006B\217\302\365>\232\231\231\276\256G\341=\315\314l@\256G\341>33\033\301)\\\217=33\303\300333?fffA\\\217B>\315\314\200Afff?\315\314\324A\217\302\365>ff\222A\217\302\365<\315\314\002B\303\365\250>ffFA=\nW>\000\000\310A\000\000\000?33\363@\303\365h?\315\314\214?\270\036E?\232\231\331\300\232\231\031>ff\216A\256Ga>\232\231\255A\256Ga>\000\000\300?\000\000\200>\232\231IA\341z\224>ff\232A\\\217\002?\232\231yA\366(\334>\000\000\032B\327\243p?\315\314\324Aff\346>33\263\300{\024n?\315\314\300A\256G\341>33\243@=\n\027?\000\000@@\n\327c?\232\231)A\037\205\353>\232\231\355AH\341\372>\000\000 @q=\212>\232\231\371\300=\nW>ff\216A\341z\024?\232\231\225A\024\256G?\000\000\224A\244p\275>\232\231\031?H\341z?\315\314\274A\366(\334>\232\231\211A\315\314L?\315\314\254A\\\217B>33\001B\n\327\243=ff\026A\n\327#?ff\246@\232\231Y?\315\314\340A\000\000\200>33S@fff?\315\314\370A\341z\024?ff\222A\000\000\200>\000\000\360\300)\\\217=ff\024B)\\\017?\232\231\235A\366(\\?\232\231aA\354Q\270=33\337AR\270\036?33\001BH\341:?33\323A\303\365(?\000\000\224A\n\327#<\232\231\271@\315\314\314=\000\000\026B333?\000\000 \300\037\205\353>333@\270\036\005>ff\302A\217\3025?ff\006B\315\314\314=\000\000\200\300R\270\036?ff\226\300\n\327#?\000\000\020B\256Ga>\232\231\025B\n\327#>\232\231\211@\327\243\360>33[A\\\217\302>333\300\n\327\243<\000\0008A\354Qx?\315\314L\277\205\353\321>\000\000\354AH\341:?33\027B{\024n?\000\000\300\300\000\000\200>33\263\300=\nW?\232\231AA\315\314\314>ffVA\327\2430?\000\000\nB\n\327\243=fff@{\024.?ff\006@33s?\232\231\371\300\303\365\250>33\313A\256G\341=33s@\315\314\314>\000\000\364A\217\302u=ff\030B\256Ga?\000\000\334A\244p\275>\315\314\\A=\n\327>\232\231\017B\205\353Q?ff\246\277\303\365\250>\000\000pA\270\036\205>ff&\300\366(\334>\000\000@A\024\256G?33\rB\n\327c?\232\231\271@\\\217\002?\000\000`@\205\353\021?\232\231\355A\244p=?\000\000\002B\n\327#=\000\000\350A\232\231\031?ff&@ff\346>\315\314\214\300333?\315\314\314\275\341zT?\000\000\210A\354Q8?33\257A\256G\341=ff\266A\000\000@?ff\246@\303\365(?\232\231\331A\205\353\021?\000\000\000?\256G!?ff\366@)\\O?\000\000\224A\256Ga>33\357A\n\327#=\315\314\354@\256Ga?\000\000\200A\037\205k?\315\314\204A)\\\217>ff\372A\354Q\270=\000\000\030B\217\302\365<333?\037\205\353>\232\231\001B\\\217\302>33\263\300q=J?ff\000B\n\327#>\000\000\360@)\\\217=33\023\301\270\036\005?\232\231\341A\270\036\005?33kA\000\000\200>\315\314\014\301\n\327#?\232\231\023Bq=J?ff\256A\232\231\031?33;A\315\314\314=\000\000\200\300\n\327#<\315\314L\300\217\302u=\000\000 A\232\231\231>\315\314\214A\341zT?\000\000\200\277\n\327#>\315\314\324Aff&?33\237AH\341:?\315\314\220A=\nW?33\021B\315\314\014?33\247A\n\327#?33\013B\\\217\002?33\007B\270\036\205>\315\314\014B\256Ga?ff\346\300{\024.>\232\231\021\301{\024n?\232\231\tB\354Q\270=\000\000\000AR\270^?ff\256A\n\327#<ff\306A\244p=?33\303A\217\302\365=\000\000\026Bq=\n?ff\276A\256G\341>\315\314tA\327\243p?\232\231y@\217\302u=\000\000\240\300\315\314\314>\232\231\231A\270\036\005>\000\000\036B\217\3025?\315\314\354A\303\365h?\000\000 @ff&?\000\000(AR\270\236>\315\314\274\300{\024.?\315\314\004\301\315\314\314=\315\314\270A\315\314L>\315\314\354\300\354Q\270>\315\314\274A{\024\256>\000\000\010A\303\365\250>\232\231\035B)\\O?\315\314\022B\232\231\031>\000\000\374A\n\327#<\232\231\235A=\nW>33\263\277fff?33\257A\037\205k?\232\231\325A\217\302\365<33{A\256Ga?\000\000\240A\303\365(?\232\231\027BR\270\236>\315\314\234A\n\327c?\315\314\034B\024\256\307>33\021B)\\O?\232\231y\300)\\\017?\232\231\325A\327\2430?\315\314\300A\327\2430?\000\0008A\205\353\021?\315\314l\300q=\n?ff\034B\217\302\365=ffvA)\\\217>\232\231\371A\205\353\321>ffVA\000\000\000\000ff\346?\000\000\000?33\003\301=\n\327>ff\362A\205\353\021?\232\231\tB\000\000\200>\232\231\331Aq=J?ff\242A\256G\341>ff\226A\327\2430?ff\006B\303\365h?\000\000\200@\\\217B?\232\231\tB=\nW>ff\256A\354Q\270=33\257Afff?333\300)\\O?\000\000\260@=\n\327>\232\231\371A\354Qx?\315\314\254\300\341z\024?33\023@\000\000@?\000\000\300\300fff?33\003B\037\205\353>\315\314\030BH\341\372>\315\314\270A\354Q8>\232\231Y@\270\036\205>\000\000\030B\n\327\243<33{A\n\327c?fff?\366(\334>\232\231\351@{\024.?33\343@\270\036\005?\000\000xA=\n\027?\232\231\251\300\205\353\021?\315\314\260AH\341\372>\315\314\214A\341zT?\315\314\016B\354Q8?\232\231\023B\\\217B?33\263\300\315\314L>\000\000\214A=\nW?33\277A\341z\224>33\263\300\000\000\200>\315\314\340A\270\036\005>\000\000\330A\217\302u>\000\000\374A\232\231\031?33;A\315\314\314=33\313Aff\346>\232\231\231\277=\n\027?\315\314\032B\256Ga?\315\314\014\301\\\217\302>ff\024B)\\O?33\243\300ff&?33\223A\303\365h?ff\206@\256G!?\232\231\211\300\n\327\243<\232\231\255A\303\365h?\232\231Y\300=\n\027?33\363\277\315\314\314=\315\314,@\n\327c?ff\232A\217\302u?\315\314\204AH\341\372>ff\256A\327\243\360>\000\000\030\301\037\205k?33s\300\037\205+?ff\346@)\\\017?33\263@\244p=?\315\314\274@)\\O?33\031B\270\036\205>33\017B)\\\217=\000\000\240\300\n\327\243=ff\016\301\205\353Q?ff\366\30033\263>\232\231\tA)\\\217=\000\000\016B\n\327c?\232\231\027B\\\217\302>\315\314\314@\315\314\314=\315\314\314\300fff?\000\000\300A\327\243p?ff\030B\000\000\200?\315\314\234A\315\314L>\232\231\231>\315\314L>\000\000\230A\315\314L>33\257A\232\231\031?\000\000\032Bq=J?ff\036B\000\000\000?\000\000\026B\270\036\005?\000\000\244AR\270\236>\315\3144A\315\314L>33\353A33s?ffNA\n\327\243=ff\226\300{\024.>\315\314\200A\315\314\014?\000\000\000AH\341:?\000\000(A)\\\217=33\001B\037\205\353>\000\000\340\300\256Ga>ff\346\277\037\205k>\232\231\235A)\\\017>33\223\300\315\314\314>\315\314\000Bfff?ff\326\300\256G!?\232\231\231\276\037\205k?ff\026\301q=\212>33\253Aq=\n?\315\314\334A\232\231\031>\232\231\235A\n\327#<ff\312A\256Ga>33sA)\\\217>\000\0000A\n\327#=\315\314\030B)\\O?\000\000\354AR\270\236>33\003\301\341z\224>ff\212A\270\036E?33\033Bff&?\232\231\305A\315\314L>\232\231\271@\256G\341>\232\231\tB{\024.>\315\314\374\300\217\302\365>\315\314\016B\232\231\031>\315\314\344A\024\256\007?\232\231\231\276\024\256\007?\000\000\260\300\205\353\321>\232\231\033Bq=\n?33\343@333?\232\231\tA\217\302u>\315\314\300A\\\217\002?fff\300\354Q8?\232\231\271\300\270\036\005?\000\000 @\366(\034?\315\314\006B\341z\224>ff\212A\n\327#>ff\006\301\000\000\000?33\377A\366(\\?\315\314\310A\303\365(?\315\314\314@\244p}?\000\000\020\301{\024n?ff\346\300\037\205k>ff\212A\217\302\365>\232\231\025B\n\327#>\232\231\tB\366(\334>\000\000pA\256Ga?ff\312A\270\036\005?fff?=\nW?ffnA\341z\224>\315\314\304A\315\314\314>\315\314\000B)\\\217=ff\014B333?33\013A\\\217B?ff\034B\217\3025?\232\231\315A\354Q\270=\315\314\200A\000\000@?\315\314lA\270\036\205>ff^A\n\327#=\232\231\331\277\024\256\007?33\347A\244p=?\000\000\000?=\n\027?\232\231\331?\303\365(?\315\314\334@\327\2430?33\007B\327\243p?ff\036\301\217\302u?33\035B\024\256G?33\343\300\315\314\314=\000\0008A\205\353\321>\000\000`@\217\302u?\000\000\234Aff&?ff\206A\217\302u?\232\231\251\300\\\217\302>33\373A{\024\256>ff\266\300H\341:?ff\252A\366(\034?33\217A\217\302u>ff\346?\024\256\307>33\277A)\\\017?33\323@\315\314L>\315\314\334\300ff\346>33\263\300\315\314\314>ff\336A)\\\017?33\005B=\n\027?ff\236A\\\217B>ff\276A)\\\217>\232\231\331\300\n\327#?ffvA\\\217B>\315\314\014@=\n\027?\315\314DA\303\365h?33\023A\232\231\031?\315\314\204A\000\000@?\000\000\340@\000\000@?ffnA\256G!?\000\000\220\300\\\217\002?\315\314l@\341z\224>33\347A\244p\275>ff\266@\256G\341>\232\231\251A\\\217\302>333A\354Q8?\000\000\264AH\341:?\315\314,@\244p\275>\000\000\020B\270\036\005>33\017Bff\346>\315\314tAq=J?\315\314\374@H\341z?\315\314\370A\244p}?\000\000PA\n\327#=ff\006\301\244p}?\315\314\314?\\\217\302>33\343\300\270\036E?33\253A\341zT?\000\000(A\327\2430?\232\231\001\301\303\365h?\232\231\251\300H\341\372>33\207A\256Ga>\232\231\331\277\232\231\231>33\343@\232\231\231>\232\231QA\244p=?\000\000\004B\024\256\007?\000\000\370A\256G!?\315\314\360A\037\205k>\315\314\330A\244p\275>ffFA\037\205k>33\023B\232\231\031?\232\231\037B\\\217B>\315\314\314A\n\327#=\315\314\314A\n\327#=ff\242A\366(\\?\315\314\354A\217\302\365>33\227A)\\\217>\000\000\320Aq=\212>33\031B\205\353\321>\000\000\270A)\\\017?ff\312A\n\327#=33\273Aff\346>\315\314L\277\256G!?33\033A\303\365(?\315\314\\A\315\314\014?33S\300\000\000@?ff\006\301\\\217B?\232\231\231A\000\000\000?ff\032B\232\231\231>\315\314\004A\315\314L>ff\346?\270\036\005?33\247A\341z\024?\232\231\331AH\341z?\000\000\036B\303\365(?\000\000\360A)\\O?33\363A33s?\232\231\031\301\n\327\243>\232\231\031A\n\327\243>\232\231\037B\327\243p?\000\000\360\300=\nW>ff\016\301\232\231Y?\315\314\014\30133s?\232\231\301A\341zT?\232\231\035B\303\365\250>ff\312A\232\231Y?ff\030B\217\302u?\232\231\331?=\n\327>\000\000\210A{\024\256>33\333A=\n\027?\315\314\244AH\341z?ff\024BH\341\372>ff\276Aq=J?\000\000\320@\n\327c?\000\0008A\037\205+?\232\231\331?)\\\017?\000\000\360\30033\263>\232\231\033Bff&?33\323A\244p}?\315\314l@\366(\034?ff\266@\205\353\021?\000\000\300A=\n\327>ff\010B\n\327\243<\232\231Y@)\\\017?ff\024B\327\243\360>\315\314\214\277\\\217B?ffVA\217\302u?33\237A\000\000\200>ff\346?H\341z?\315\314\000B=\n\327>33\003\301\\\217B>\000\000\320A\341z\224>ff\226@\341zT?\000\000\300\277q=J?\232\2319\300\327\243p?\232\231\031Bff\346>\315\314\364A\217\302\365>\232\231YA\217\302u?fff@\315\314L=33\203\300)\\\217>\000\000\016B)\\O?33\263?\244p=?\000\000\022B\232\231\031?\232\231\023B\232\231Y?\000\000\000\301\217\302\365<\232\231y\300\232\231\031>\232\231\235A\n\327\243<\000\000\000?\270\036\205>ff\036B)\\\017?ff\356A\n\327\243>\315\314\300A\315\314\314>33cA\024\256\307>\315\314\234\300q=J?33\023B\037\205k?\315\314\034A\024\256\007?ff\366\300\354Qx?\315\314<A\303\365(?\232\231\251@\256G\341>33\227AH\341z?33\323@ff\346>ff\026\301\000\000\200>\315\314\314\300\366(\034?33\007B\n\327\243>33\217A\217\3025?\315\314\274A\217\302u?33\031BH\341\372>\315\314\234@\270\036\205>33\263\277\315\314\314>\315\314\274A\205\353\321>ff\022B\n\327#?\000\000\010A\037\205+?\000\000 \301=\nW>\000\000\020B\037\205k>ff\206@\n\327\243<33\323A\341z\024?\232\231\201A\217\302\365=\315\314\250A\303\365(?ff\024B\217\302\365<ff\276Afff?33\263\300\315\314\314=\000\000\340@\037\205\353>\232\231QA=\nW>\315\314\034B\037\205+?\000\000hA\217\302\365<33\213A\205\353Q?\232\231\361A\303\365h?\315\314\204A\n\327\243=\232\231\225A\327\243\360>ff&@q=\212>ff\306A)\\\017>33\223\300\\\217B>\232\231\231>\354Qx?\232\231\345A\256G!?ff\372A\217\302u?\232\231\371A\270\036E?ff\266A33s?\232\231\241A\256G\341>\315\314,\300\232\231\231>33+A\217\302\365<\232\231\271\300)\\\017>\315\314\270A\366(\\?\000\000 @\n\327#=\000\000\200\27733s?\232\231\371A33\263>\000\000\000?\037\205k?\000\000\344Aff&?\315\314\374@\256G\341>\315\314\344AH\341z?\232\231\301A=\n\327>\232\231\t\301\244p=?\000\000\002B=\n\027?\315\314\200A\354Q\270=33\343@\037\205k>33\203\300\000\000\000\000ff\312A33s?ff\236A\n\327#?\315\314\340Aff\346>\315\314\260AH\341\372>\232\231)A\354Q\270>33\247A\024\256\307>33\377A\354Q\270>\232\231\311@\366(\034?33\267AR\270\036?ff\232A\\\217B?\315\314\214\277)\\O?\000\000pA\\\217\302>33{A333?\315\314\314\276\000\000@?\000\000\300?\024\256G?33cA{\024.>ffF@33s?\315\314\340AH\341:?ff\332A33s?\315\314\310A\024\256\007?\232\231\251@)\\\017>33\207A\354Q\270>33sA\037\205k?\315\314\334A\217\3025?ff\020B\244p\275>ff\266@)\\\217>ff\352A\000\000\200>ff\026B\217\302\365<\232\231\331A\303\365h?\315\314\004A\244p\275>333@\244p=?\315\314\024A33s?\232\231\361A\037\205\353>\232\231yA333?\000\000\020A\315\314L=ff\004B\256G\341=\315\314\000B\217\3025?ff\036B\315\314L?33\363@\217\302\365=33\303\300\n\327\243>\000\000\200\300\000\000\200>\315\314L\277\n\327#=\232\231!A)\\\017?33\243@fff?\232\231\311A\244p\275>\232\231\311A\205\353Q?ff\020Bq=\212>\000\000\340\300)\\\017?\232\231\031\277q=\212>\315\314\234A\037\205+?33\343\300q=\n?ff\236A\315\314\314>ffnA\205\353\021?ff\366@ff\346>ff\246@\n\327\243=\232\2319\30033\263>\000\000HAff\346>\315\314\234@\341zT?ffFAR\270\036?\315\314\344A\315\314\014?33\263A\217\3025?33\001B\256G\341=\000\000\024B\256Ga>\315\314\220A\\\217B?ff\366A=\nW?\315\314\022B)\\\017>ff\016\301{\024.?\315\314\314\300\037\205k?\232\231\321A\327\243p?33\227AH\341\372>\232\231\355A)\\\217>\000\000\254A\303\365h?ff\232A\303\365\250>33\363\300\354Qx?\315\314\024Bff\346>\232\231\031@)\\\217=\315\314\324A333?\315\314,\300\217\302\365>33\267A\037\205+?\232\231\021B\232\231\031>33kA)\\\217>ff\336A\n\327\243=\232\231\221A\217\302u=\232\231\271A\217\302u?\315\314\314\300\270\036\205>\000\000\000\300=\n\027?\232\231\371A\315\314L=\000\000\224A\256G\341>\315\314\304Aq=\n?\232\231yA\315\314\314=33\027B33s?33\257A\354Q8>33\303A\244p=?\232\231!A\315\314\314=\315\314\310A33\263>ff\266A\315\314\314=33\001B\n\327\243<33\003\301H\341:?ff\312A\270\036\205>33#A\354Q\270>\315\314\274A\244p\275>33\263AH\341z?33\203@\217\302u=33\273AR\270\236>ff\246A\354Q8?\000\000\030A{\024.>ff\226@ff&?33\323\300\\\217B?ff\272A\217\302\365<\000\000\200@\232\231\031>ff\036A\256Ga?33\313Aq=\212>33\033B\256Ga>\232\231\215A\\\217\302>ff\242A{\024.?ff\346\277\270\036E?\315\314\014\300R\270\036?\315\314\314\277q=\n?\000\000\020\301R\270\236>\315\314\014A{\024.?33\203A\315\314L?ff\206\300\217\302\365<\315\314\214AH\341z?\315\314\314=)\\\217>33cA{\024n?\000\000`\300\\\217B>33\203@\217\3025?ff\346A\270\036E?\232\231\315A\024\256\007?\232\231\025Bff&?ff\006@\232\231\031?33\203\300=\n\027?33\003B\217\302\365<\232\231\241A\\\217B>ff\010B\217\302u=\315\314\254@\037\205k>ff\010B{\024\256>fff?=\nW>\232\231\235A\024\256\007?\315\314\024\301=\nW>\232\231IA{\024\256>33\023\300\256Ga>\315\314\014\301\354Q8?\000\000\240\300\\\217\002?33\223@\n\327#>33\267A33\263>ff\342AR\270^?33\037B\315\314L?\232\231\tB\\\217B>\000\000\010B\303\365h?ff\000B\354Q8>\315\314\014@\217\302u>ff\346?\024\256\307>\000\000\364AR\270^?\315\314L>{\024.?ff\246A\037\205k?\232\231\013B{\024.?\232\231\231?\000\000\000?\000\000\320\300\354Q8>\315\314\270A\270\036\205>\232\231\375A\n\327\243>\000\000\240A)\\\017>33\025B\354Q8>\315\314\274Aff\346>ff>A)\\O?\232\231\013B\217\3025?\000\000\004B\315\314\314=ff\276A\303\365\250>33S\300fff?33\023\301=\nW>\000\000(A\354Q8?\000\000pA)\\\017>\315\314\314>333?33\263?\n\327\243=\232\2319\300\217\302\365>\232\231\265A\037\205\353>ff\266@\354Qx?\232\2319\300\000\000\200>\315\314\310A\303\365\250>ff\206@\n\327#<33\035Bq=\212>ff6A\244p=?33\323A\n\327\243>\315\314\300A\217\302u=\000\000\300A\354Q\270>ff\246@{\024\256>ff\226\300\341zT?\315\314TAff&?\315\314,\300\244p}?\000\000\000?\037\205k?\000\000\354A\315\314\314=33KA\366(\334>\315\314<A\327\243p?\232\231\027B\217\302u?ff\006\300ff\346>ff\346\277\n\327\243>\232\231\035B\\\217\302>\315\314\024B\327\243p?33\023\301)\\\017>\315\314\034A\n\327\243=ff\000B=\n\027?333?\315\314L=\232\231\031\300\217\3025?ff\014B{\024.>\232\231\031B\244p=?ff\206A33s?\232\231\205A\217\302u?33\363A\270\036\005?33\263A\341zT?\232\231\275AR\270^?\315\314l\300\n\327#?ff\036A\366(\334>\000\000\000\277\354Q\270=\232\231\271@\354Q8?\315\314\024B\315\314L?\000\000\006B\244p\275>33S\300=\n\027?\315\314\230A\037\205k?33\035B\217\302u>\232\231Y@\205\353\321>\315\314\220A333?33sA\354Q8?\315\314\\A\256G!?33\317A\256G\341=\000\000\030B\217\3025?33\303A333?33\227AH\341:?ff>A\270\036E?\315\314,@H\341\372>ff&A\000\000\000?fffA\256Ga?\232\231\035B\217\302\365<\000\000 